<pad>	0
<bos>	0
<eos>	0
<unk>	0
▁t	-0
▁a	-1
▁th	-2
in	-3
ou	-4
re	-5
▁the	-6
▁s	-7
▁w	-8
▁o	-9
▁to	-10
▁y	-11
nd	-12
▁you	-13
ing	-14
it	-15
▁b	-16
er	-17
at	-18
▁c	-19
▁g	-20
▁h	-21
is	-22
▁and	-23
▁f	-24
▁d	-25
▁m	-26
▁p	-27
ll	-28
▁l	-29
an	-30
▁go	-31
▁I	-32
on	-33
▁of	-34
or	-35
ve	-36
▁it	-37
le	-38
us	-39
▁that	-40
en	-41
ow	-42
▁in	-43
es	-44
▁is	-45
ar	-46
om	-47
ic	-48
et	-49
▁n	-50
ke	-51
▁ha	-52
▁on	-53
▁your	-54
ot	-55
▁going	-56
▁be	-57
▁we	-58
▁e	-59
▁wh	-60
ay	-61
ed	-62
gh	-63
as	-64
ut	-65
▁st	-66
all	-67
ac	-68
al	-69
out	-70
▁A	-71
▁do	-72
ver	-73
ere	-74
▁re	-75
▁r	-76
▁T	-77
▁this	-78
▁S	-79
igh	-80
ant	-81
ust	-82
ith	-83
▁have	-84
▁are	-85
if	-86
▁j	-87
▁Th	-88
ight	-89
▁with	-90
▁can	-91
id	-92
ch	-93
▁for	-94
ake	-95
up	-96
os	-97
▁just	-98
el	-99
▁k	-100
ad	-101
im	-102
ion	-103
▁sh	-104
ally	-105
ome	-106
▁So	-107
ld	-108
▁want	-109
use	-110
od	-111
▁an	-112
▁get	-113
ra	-114
▁or	-115
ir	-116
ec	-117
▁so	-118
▁And	-119
▁up	-120
▁li	-121
am	-122
ent	-123
ly	-124
▁ab	-125
itt	-126
very	-127
▁out	-128
ain	-129
▁they	-130
oo	-131
▁W	-132
ure	-133
▁like	-134
ill	-135
ore	-136
▁as	-137
▁ne	-138
th	-139
▁not	-140
▁my	-141
▁here	-142
ittle	-143
▁little	-144
▁se	-145
our	-146
op	-147
un	-148
▁about	-149
ack	-150
ers	-151
ip	-152
ide	-153
▁make	-154
▁one	-155
▁what	-156
▁there	-157
il	-158
▁if	-159
▁then	-160
art	-161
ep	-162
▁Y	-163
ct	-164
rou	-165
▁kn	-166
▁don	-167
▁fr	-168
ould	-169
▁N	-170
▁le	-171
ur	-172
ol	-173
▁but	-174
▁some	-175
▁al	-176
ce	-177
st	-178
ook	-179
▁at	-180
▁You	-181
ice	-182
▁all	-183
▁pr	-184
ard	-185
▁very	-186
se	-187
ind	-188
ause	-189
own	-190
ap	-191
▁when	-192
ive	-193
▁ch	-194
▁thing	-195
▁B	-196
▁ex	-197
▁them	-198
▁sp	-199
king	-200
▁The	-201
▁he	-202
▁right	-203
ort	-204
▁pl	-205
ab	-206
ge	-207
▁how	-208
▁use	-209
▁back	-210
▁int	-211
▁wor	-212
em	-213
qu	-214
ul	-215
▁put	-216
▁cl	-217
▁will	-218
▁really	-219
▁It	-220
▁bec	-221
ine	-222
▁Now	-223
▁down	-224
▁look	-225
▁O	-226
ick	-227
▁com	-228
▁from	-229
▁hand	-230
▁sure	-231
nt	-232
reat	-233
▁pre	-234
▁more	-235
her	-236
ry	-237
▁our	-238
ess	-239
ove	-240
ter	-241
ig	-242
▁because	-243
ose	-244
▁me	-245
▁us	-246
▁way	-247
um	-248
ame	-249
▁br	-250
▁lot	-251
ting	-252
▁need	-253
▁tim	-254
▁over	-255
▁take	-256
oc	-257
▁H	-258
▁te	-259
▁fl	-260
▁got	-261
▁any	-262
▁We	-263
est	-264
▁Wh	-265
▁good	-266
▁see	-267
ink	-268
gain	-269
omet	-270
▁This	-271
▁into	-272
▁de	-273
hing	-274
▁start	-275
▁C	-276
▁M	-277
act	-278
▁fe	-279
▁off	-280
ually	-281
pp	-282
▁know	-283
▁con	-284
ace	-285
ist	-286
round	-287
ect	-288
▁bit	-289
▁fo	-290
and	-291
iff	-292
ation	-293
▁ke	-294
▁time	-295
ast	-296
ment	-297
▁diff	-298
▁act	-299
ther	-300
so	-301
ong	-302
ost	-303
way	-304
he	-305
▁tw	-306
ate	-307
▁somet	-308
▁nice	-309
▁en	-310
▁side	-311
imp	-312
uch	-313
ough	-314
▁again	-315
▁differe	-316
▁pe	-317
▁But	-318
▁work	-319
▁every	-320
▁bl	-321
▁bas	-322
▁may	-323
▁ball	-324
▁come	-325
▁F	-326
ich	-327
▁keep	-328
▁v	-329
▁now	-330
▁ad	-331
▁tal	-332
▁would	-333
▁different	-334
▁co	-335
▁also	-336
▁other	-337
xt	-338
are	-339
▁ma	-340
▁L	-341
les	-342
row	-343
▁actually	-344
ff	-345
▁ro	-346
rough	-347
▁which	-348
ob	-349
ire	-350
ple	-351
ree	-352
▁where	-353
one	-354
▁col	-355
▁D	-356
ies	-357
irst	-358
▁kind	-359
▁these	-360
elf	-361
ven	-362
▁If	-363
▁through	-364
iz	-365
int	-366
▁was	-367
ull	-368
▁tr	-369
▁dra	-370
▁has	-371
▁two	-372
ition	-373
ty	-374
ue	-375
▁much	-376
be	-377
▁something	-378
ity	-379
▁gl	-380
▁imp	-381
▁pain	-382
▁color	-383
▁might	-384
age	-385
▁ar	-386
ward	-387
▁leg	-388
▁around	-389
ush	-390
▁That	-391
▁part	-392
ody	-393
▁too	-394
▁think	-395
▁things	-396
▁P	-397
▁R	-398
ber	-399
able	-400
ople	-401
▁show	-402
▁doing	-403
ach	-404
▁pi	-405
▁sl	-406
▁car	-407
▁pos	-408
▁their	-409
▁people	-410
▁should	-411
▁E	-412
▁G	-413
▁J	-414
▁head	-415
▁first	-416
▁great	-417
▁import	-418
ft	-419
ss	-420
▁sm	-421
ving	-422
▁end	-423
▁fing	-424
ous	-425
▁bu	-426
▁cr	-427
head	-428
▁even	-429
ater	-430
▁same	-431
ite	-432
atch	-433
self	-434
▁try	-435
thing	-436
▁does	-437
▁those	-438
▁important	-439
ens	-440
▁by	-441
side	-442
▁rem	-443
other	-444
▁line	-445
▁using	-446
ak	-447
ee	-448
ie	-449
ne	-450
▁In	-451
▁dr	-452
▁cle	-453
▁cut	-454
▁hel	-455
▁let	-456
▁say	-457
ass	-458
ott	-459
▁ac	-460
erson	-461
▁When	-462
▁find	-463
▁throw	-464
ib	-465
uc	-466
▁1	-467
ail	-468
ely	-469
▁top	-470
▁who	-471
▁next	-472
▁person	-473
old	-474
ways	-475
▁day	-476
▁What	-477
▁help	-478
▁piec	-479
ag	-480
tr	-481
▁sk	-482
ady	-483
ase	-484
ock	-485
▁ey	-486
▁po	-487
▁un	-488
▁add	-489
▁long	-490
▁talk	-491
ically	-492
▁ahead	-493
▁could	-494
yp	-495
get	-496
▁qu	-497
▁sc	-498
fore	-499
ning	-500
▁hip	-501
▁call	-502
▁step	-503
▁maybe	-504
ark	-505
kay	-506
▁give	-507
▁most	-508
▁shot	-509
▁paint	-510
der	-511
end	-512
ance	-513
▁typ	-514
▁They	-515
▁clean	-516
▁three	-517
▁wr	-518
▁eas	-519
▁had	-520
▁move	-521
▁stre	-522
--	-523
ave	-524
▁bet	-525
▁pap	-526
▁ser	-527
▁area	-528
▁feel	-529
▁than	-530
▁well	-531
ix	-532
ish	-533
pen	-534
▁There	-535
▁before	-536
▁position	-537
ife	-538
ign	-539
lic	-540
uct	-541
▁bo	-542
ical	-543
itch	-544
ound	-545
ower	-546
▁app	-547
▁big	-548
▁man	-549
▁tra	-550
▁creat	-551
ont	-552
ors	-553
red	-554
▁Al	-555
▁cor	-556
▁str	-557
▁once	-558
▁paper	-559
ade	-560
ool	-561
tty	-562
und	-563
▁no	-564
▁run	-565
▁draw	-566
▁light	-567
▁another	-568
ms	-569
ale	-570
oth	-571
▁Hi	-572
ever	-573
▁set	-574
▁bott	-575
▁foot	-576
▁brush	-577
ial	-578
ise	-579
▁am	-580
▁best	-581
▁body	-582
▁prod	-583
▁pull	-584
▁pretty	-585
▁yourself	-586
..	-587
ear	-588
nce	-589
per	-590
vel	-591
▁af	-592
ious	-593
tain	-594
▁flo	-595
▁she	-596
▁done	-597
▁hold	-598
▁kick	-599
▁prob	-600
▁stra	-601
gether	-602
▁point	-603
▁always	-604
▁getting	-605
og	-606
ape	-607
ric	-608
ated	-609
▁buy	-610
▁ext	-611
▁her	-612
▁sec	-613
▁tur	-614
▁real	-615
▁were	-616
▁together	-617
ans	-618
day	-619
ile	-620
umb	-621
imes	-622
▁cre	-623
▁its	-624
▁been	-625
▁home	-626
▁skin	-627
▁piece	-628
▁K	-629
ily	-630
ner	-631
ond	-632
▁ed	-633
hale	-634
▁cou	-635
▁did	-636
▁mas	-637
▁min	-638
▁squ	-639
ember	-640
▁able	-641
▁roll	-642
▁hands	-643
▁press	-644
▁water	-645
▁bottom	-646
av	-647
ud	-648
ild	-649
orm	-650
upp	-651
▁new	-652
▁sit	-653
▁left	-654
▁front	-655
▁"	-656
een	-657
ked	-658
rap	-659
ult	-660
▁gr	-661
▁ve	-662
ient	-663
ouse	-664
▁des	-665
▁per	-666
▁res	-667
ility	-668
▁four	-669
▁hard	-670
▁shar	-671
ection	-672
▁knife	-673
▁enough	-674
▁product	-675
ia	-676
ub	-677
ath	-678
ood	-679
tch	-680
vent	-681
▁bre	-682
▁und	-683
wards	-684
▁clip	-685
▁happ	-686
▁tell	-687
▁doesn	-688
▁house	-689
▁looks	-690
▁place	-691
▁finger	-692
▁working	-693
ful	-694
ize	-695
ons	-696
ows	-697
ping	-698
▁Let	-699
▁cra	-700
▁oil	-701
▁rec	-702
▁rep	-703
▁face	-704
▁high	-705
itting	-706
▁whole	-707
▁called	-708
▁inside	-709
▁making	-710
▁fingers	-711
▁stretch	-712
▁2	-713
ift	-714
ular	-715
▁fle	-716
▁ind	-717
▁inf	-718
▁feet	-719
▁hair	-720
▁play	-721
▁tool	-722
▁after	-723
▁bring	-724
▁catch	-725
▁store	-726
▁talking	-727
dle	-728
kes	-729
ope	-730
▁gu	-731
iron	-732
▁ang	-733
▁dis	-734
▁eye	-735
▁gra	-736
▁Okay	-737
▁away	-738
▁care	-739
▁five	-740
▁name	-741
▁supp	-742
▁contr	-743
▁minut	-744
▁pract	-745
▁anything	-746
▁straight	-747
ats	-748
chn	-749
ell	-750
ese	-751
▁An	-752
▁sw	-753
unch	-754
▁det	-755
▁dry	-756
▁him	-757
▁ide	-758
▁mix	-759
▁comp	-760
▁deal	-761
▁food	-762
▁last	-763
▁only	-764
▁floor	-765
▁stick	-766
▁today	-767
▁better	-768
▁couple	-769
▁weight	-770
▁basically	-771
▁everything	-772
ash	-773
iqu	-774
ably	-775
fort	-776
ness	-777
ouch	-778
▁tow	-779
aking	-780
ative	-781
▁flat	-782
▁many	-783
▁used	-784
▁small	-785
▁stand	-786
▁touch	-787
▁ground	-788
▁forward	-789
▁8	-790
ied	-791
iel	-792
ird	-793
ots	-794
str	-795
lect	-796
▁fun	-797
▁opp	-798
ially	-799
right	-800
▁Then	-801
▁card	-802
▁easy	-803
▁turn	-804
▁type	-805
▁Again	-806
▁glass	-807
▁train	-808
▁under	-809
▁colors	-810
▁remember	-811
ex	-812
oy	-813
sh	-814
ug	-815
▁3	-816
arn	-817
enc	-818
mer	-819
til	-820
▁As	-821
▁sa	-822
ails	-823
body	-824
▁For	-825
▁dec	-826
▁def	-827
▁fin	-828
▁lay	-829
▁spr	-830
chool	-831
ready	-832
▁Just	-833
▁cent	-834
▁edge	-835
▁fact	-836
▁hips	-837
▁comes	-838
▁plant	-839
▁techn	-840
▁times	-841
▁wrist	-842
▁already	-843
▁sharpen	-844
▁probably	-845
▁sometimes	-846
ks	-847
▁V	-848
esp	-849
ger	-850
its	-851
oon	-852
oss	-853
▁Ch	-854
▁el	-855
▁sn	-856
reen	-857
▁esp	-858
▁job	-859
▁kne	-860
▁red	-861
▁sho	-862
▁smo	-863
▁ten	-864
▁game	-865
▁gets	-866
▁legs	-867
▁mark	-868
▁year	-869
▁basic	-870
▁power	-871
▁ready	-872
▁until	-873
▁white	-874
ecially	-875
▁coming	-876
▁design	-877
▁second	-878
▁comfort	-879
▁towards	-880
▁usually	-881
▁practice	-882
iv	-883
air	-884
ble	-885
ict	-886
iss	-887
uff	-888
▁St	-889
▁ob	-890
cess	-891
▁dog	-892
▁few	-893
ither	-894
▁each	-895
▁comple	-896
▁without	-897
▁whatever	-898
pl	-899
ro	-900
anc	-901
aut	-902
▁My	-903
▁ra	-904
ique	-905
ling	-906
most	-907
ones	-908
▁One	-909
▁bra	-910
▁cur	-911
▁eff	-912
▁env	-913
▁hit	-914
▁loc	-915
▁sun	-916
gment	-917
vious	-918
▁Make	-919
▁Once	-920
▁drop	-921
▁foll	-922
▁meas	-923
▁pour	-924
ension	-925
▁These	-926
▁being	-927
▁cause	-928
▁cream	-929
▁order	-930
▁quick	-931
▁create	-932
▁partic	-933
ironment	-934
▁complet	-935
▁prevent	-936
▁environment	-937
bs	-938
lf	-939
ps	-940
wh	-941
ern	-942
ier	-943
oop	-944
ord	-945
ren	-946
ual	-947
▁Ne	-948
▁mo	-949
▁sy	-950
fect	-951
ions	-952
oper	-953
osed	-954
read	-955
ress	-956
▁his	-957
▁kid	-958
▁old	-959
▁sur	-960
▁tip	-961
ients	-962
▁cont	-963
▁dark	-964
▁free	-965
▁grab	-966
▁made	-967
▁ones	-968
▁open	-969
▁plan	-970
▁simp	-971
▁tape	-972
▁tend	-973
▁vint	-974
▁makes	-975
▁means	-976
▁still	-977
▁school	-978
▁trying	-979
▁Alright	-980
▁outside	-981
▁segment	-982
▁vintage	-983
▁comfortable	-984
hy	-985
ts	-986
ars	-987
ary	-988
eck	-989
irt	-990
ped	-991
uck	-992
ence	-993
oves	-994
ures	-995
▁bel	-996
▁cho	-997
▁dep	-998
▁hor	-999
▁lar	-1000
▁pur	-1001
▁ref	-1002
▁rel	-1003
▁tak	-1004
ating	-1005
irect	-1006
ments	-1007
ourse	-1008
▁Some	-1009
▁base	-1010
▁bird	-1011
▁comm	-1012
▁deep	-1013
▁fall	-1014
▁goal	-1015
▁hook	-1016
▁lift	-1017
▁okay	-1018
▁pink	-1019
▁push	-1020
▁sell	-1021
▁slow	-1022
▁sort	-1023
▁stap	-1024
▁stop	-1025
ations	-1026
▁angle	-1027
▁leave	-1028
▁thumb	-1029
▁while	-1030
▁center	-1031
▁course	-1032
▁having	-1033
▁though	-1034
▁minutes	-1035
▁perfect	-1036
▁running	-1037
▁throwing	-1038
▁training	-1039
▁especially	-1040
yc	-1041
▁U	-1042
ang	-1043
joy	-1044
ups	-1045
▁Or	-1046
ange	-1047
bing	-1048
tern	-1049
▁bal	-1050
▁fam	-1051
▁gar	-1052
▁inc	-1053
▁mag	-1054
▁mid	-1055
▁sal	-1056
▁ver	-1057
ather	-1058
▁bath	-1059
▁blue	-1060
▁craw	-1061
▁drag	-1062
▁eyes	-1063
▁fold	-1064
▁goes	-1065
▁heal	-1066
▁loop	-1067
▁stab	-1068
▁wear	-1069
▁wind	-1070
icking	-1071
▁breat	-1072
▁child	-1073
▁knees	-1074
▁learn	-1075
▁squee	-1076
▁tight	-1077
▁direct	-1078
▁either	-1079
▁follow	-1080
▁pieces	-1081
▁hitting	-1082
▁support	-1083
▁particular	-1084
00	-1085
ah	-1086
me	-1087
ze	-1088
els	-1089
ian	-1090
ics	-1091
ings	-1092
▁All	-1093
▁beg	-1094
▁bul	-1095
▁cer	-1096
▁che	-1097
▁hot	-1098
▁low	-1099
▁why	-1100
ample	-1101
▁arms	-1102
▁clim	-1103
▁doll	-1104
▁fast	-1105
▁fill	-1106
▁full	-1107
▁glue	-1108
▁grou	-1109
▁grow	-1110
▁half	-1111
▁idea	-1112
▁inch	-1113
▁pick	-1114
▁race	-1115
▁root	-1116
▁spec	-1117
▁ther	-1118
ecause	-1119
ention	-1120
▁black	-1121
▁board	-1122
▁break	-1123
▁chest	-1124
▁enjoy	-1125
▁types	-1126
viously	-1127
▁garlic	-1128
▁control	-1129
▁example	-1130
▁measure	-1131
gy	-1132
ph	-1133
to	-1134
ara	-1135
edi	-1136
gth	-1137
ipe	-1138
▁im	-1139
▁ou	-1140
ator	-1141
cara	-1142
ible	-1143
icle	-1144
▁arm	-1145
▁far	-1146
▁fit	-1147
▁ing	-1148
▁ins	-1149
▁rid	-1150
▁suc	-1151
erest	-1152
ience	-1153
umber	-1154
▁case	-1155
▁days	-1156
▁fine	-1157
▁flex	-1158
▁love	-1159
▁mean	-1160
▁mess	-1161
▁pack	-1162
▁rock	-1163
▁stay	-1164
▁such	-1165
▁vend	-1166
▁wall	-1167
▁wire	-1168
ushing	-1169
▁begin	-1170
▁blade	-1171
▁close	-1172
▁cover	-1173
▁crack	-1174
▁defin	-1175
▁devel	-1176
▁elect	-1177
▁level	-1178
▁round	-1179
▁stone	-1180
▁years	-1181
▁detail	-1182
▁happen	-1183
▁middle	-1184
▁series	-1185
▁cutting	-1186
▁interest	-1187
▁painting	-1188
▁pressure	-1189
▁technique	-1190
▁'	-1191
▁(	-1192
amp	-1193
eel	-1194
emo	-1195
erc	-1196
erm	-1197
ike	-1198
ker	-1199
omm	-1200
ten	-1201
ves	-1202
▁ph	-1203
ason	-1204
ener	-1205
face	-1206
ield	-1207
lide	-1208
ring	-1209
▁How	-1210
▁abs	-1211
▁art	-1212
▁att	-1213
▁bad	-1214
▁bro	-1215
▁mus	-1216
▁non	-1217
▁pat	-1218
▁pen	-1219
▁spe	-1220
▁tem	-1221
▁var	-1222
▁won	-1223
ately	-1224
autif	-1225
itely	-1226
lease	-1227
where	-1228
▁Here	-1229
▁band	-1230
▁cons	-1231
▁disc	-1232
▁dist	-1233
▁extr	-1234
▁heav	-1235
▁kids	-1236
▁main	-1237
▁nose	-1238
▁note	-1239
▁prep	-1240
▁self	-1241
ommend	-1242
▁build	-1243
▁bunch	-1244
▁drink	-1245
▁exact	-1246
▁never	-1247
▁pitch	-1248
▁shape	-1249
▁stuff	-1250
▁almost	-1251
▁butter	-1252
▁corner	-1253
▁depend	-1254
▁exhale	-1255
▁finish	-1256
▁market	-1257
▁number	-1258
▁proper	-1259
▁slowly	-1260
▁strong	-1261
▁Because	-1262
▁balance	-1263
▁happens	-1264
▁someone	-1265
▁surface	-1266
▁recommend	-1267
▁definitely	-1268
any	-1269
arm	-1270
ces	-1271
ene	-1272
ged	-1273
ler	-1274
mat	-1275
ork	-1276
ump	-1277
▁Be	-1278
▁On	-1279
▁ag	-1280
▁av	-1281
▁ow	-1282
demo	-1283
form	-1284
lend	-1285
oday	-1286
ount	-1287
outh	-1288
ween	-1289
▁acc	-1290
▁bar	-1291
▁beh	-1292
▁dem	-1293
▁dou	-1294
▁ent	-1295
▁fab	-1296
▁fig	-1297
▁key	-1298
▁mod	-1299
▁nec	-1300
▁nut	-1301
▁pro	-1302
▁reg	-1303
▁sad	-1304
▁sty	-1305
▁veh	-1306
▁vit	-1307
ading	-1308
encil	-1309
ional	-1310
owers	-1311
▁clay	-1312
▁cond	-1313
▁less	-1314
▁proc	-1315
▁save	-1316
▁size	-1317
▁along	-1318
▁brand	-1319
▁brown	-1320
▁bulbs	-1321
▁cards	-1322
▁eight	-1323
▁exper	-1324
▁glove	-1325
▁green	-1326
▁magic	-1327
▁night	-1328
▁short	-1329
▁table	-1330
▁therm	-1331
▁thick	-1332
▁treat	-1333
▁fabric	-1334
▁ingred	-1335
▁moving	-1336
▁necess	-1337
▁remove	-1338
▁spread	-1339
▁Another	-1340
▁beautif	-1341
▁between	-1342
▁careful	-1343
▁certain	-1344
▁mascara	-1345
▁obviously	-1346
▁stability	-1347
ax	-1348
dr	-1349
oe	-1350
oh	-1351
pt	-1352
...	-1353
ips	-1354
ory	-1355
rib	-1356
▁Fr	-1357
▁He	-1358
▁lo	-1359
amin	-1360
anut	-1361
ects	-1362
ific	-1363
ills	-1364
inet	-1365
oney	-1366
sing	-1367
ural	-1368
▁She	-1369
▁ank	-1370
▁bic	-1371
▁box	-1372
▁del	-1373
▁equ	-1374
▁mot	-1375
▁pol	-1376
▁sol	-1377
acing	-1378
ature	-1379
ether	-1380
ingle	-1381
iving	-1382
onstr	-1383
ounds	-1384
quire	-1385
▁Next	-1386
▁both	-1387
▁coll	-1388
▁fore	-1389
▁kill	-1390
▁knee	-1391
▁oils	-1392
▁plat	-1393
▁pose	-1394
▁rest	-1395
▁room	-1396
▁rope	-1397
▁sand	-1398
▁thin	-1399
▁trop	-1400
▁First	-1401
▁Today	-1402
▁allow	-1403
▁check	-1404
▁exerc	-1405
▁extra	-1406
▁field	-1407
▁heavy	-1408
▁later	-1409
▁layer	-1410
▁often	-1411
▁spray	-1412
▁tails	-1413
▁trick	-1414
▁double	-1415
▁family	-1416
▁figure	-1417
▁flower	-1418
▁peanut	-1419
▁proble	-1420
▁simple	-1421
▁smooth	-1422
▁taking	-1423
▁develop	-1424
▁pushing	-1425
▁putting	-1426
▁require	-1427
▁smaller	-1428
▁squeeze	-1429
▁vehicle	-1430
▁vitamin	-1431
▁whether	-1432
▁cleaning	-1433
▁climbing	-1434
▁demonstr	-1435
▁tailslide	-1436
▁completely	-1437
▁sharpening	-1438
na	-1439
fer	-1440
ime	-1441
irc	-1442
ket	-1443
lly	-1444
▁Sp	-1445
ball	-1446
ello	-1447
ered	-1448
ffee	-1449
ieve	-1450
ines	-1451
izes	-1452
nces	-1453
olog	-1454
pent	-1455
▁Rem	-1456
▁aff	-1457
▁bur	-1458
▁cab	-1459
▁cap	-1460
▁elb	-1461
▁exp	-1462
▁fre	-1463
▁lip	-1464
▁mat	-1465
▁pay	-1466
▁rul	-1467
▁thr	-1468
▁wom	-1469
aming	-1470
astic	-1471
neath	-1472
uring	-1473
▁Well	-1474
▁belt	-1475
▁book	-1476
▁circ	-1477
▁didn	-1478
▁else	-1479
▁ener	-1480
▁ever	-1481
▁knot	-1482
▁mind	-1483
▁mult	-1484
▁musc	-1485
▁pass	-1486
▁post	-1487
▁said	-1488
▁sign	-1489
▁spin	-1490
▁spot	-1491
▁town	-1492
▁ways	-1493
▁yard	-1494
action	-1495
▁Every	-1496
▁Hello	-1497
▁belly	-1498
▁bicyc	-1499
▁blend	-1500
▁craft	-1501
▁found	-1502
▁gener	-1503
▁gives	-1504
▁group	-1505
▁mater	-1506
▁serve	-1507
▁shoes	-1508
▁snake	-1509
▁spine	-1510
▁spoon	-1511
▁style	-1512
▁towel	-1513
▁trans	-1514
▁watch	-1515
pentine	-1516
▁Always	-1517
▁applic	-1518
▁buying	-1519
▁choose	-1520
▁coffee	-1521
▁inhale	-1522
▁makeup	-1523
▁myself	-1524
▁notice	-1525
▁temper	-1526
▁within	-1527
▁dealers	-1528
▁mention	-1529
▁process	-1530
▁quickly	-1531
▁section	-1532
▁sitting	-1533
▁material	-1534
▁platform	-1535
▁condition	-1536
▁extension	-1537
▁thermomet	-1538
▁serpentine	-1539
▁underneath	-1540
io	-1541
we	-1542
ys	-1543
com	-1544
ges	-1545
iet	-1546
ote	-1547
res	-1548
uss	-1549
▁1/	-1550
▁Af	-1551
▁At	-1552
▁Ex	-1553
▁em	-1554
▁ju	-1555
▁la	-1556
▁wa	-1557
avor	-1558
itar	-1559
iver	-1560
ized	-1561
ored	-1562
ross	-1563
time	-1564
ully	-1565
ults	-1566
work	-1567
▁ask	-1568
▁bag	-1569
▁bun	-1570
▁cup	-1571
▁ear	-1572
▁eat	-1573
▁est	-1574
▁fra	-1575
▁iss	-1576
▁lid	-1577
▁met	-1578
▁mon	-1579
▁neg	-1580
▁own	-1581
▁pow	-1582
▁six	-1583
▁ste	-1584
▁wal	-1585
amele	-1586
▁butt	-1587
▁clos	-1588
▁conc	-1589
▁cool	-1590
▁cott	-1591
▁fair	-1592
▁fire	-1593
▁form	-1594
▁hope	-1595
▁mach	-1596
▁onto	-1597
▁pict	-1598
▁poss	-1599
▁prot	-1600
▁rice	-1601
▁seal	-1602
▁slip	-1603
▁team	-1604
▁vers	-1605
▁wood	-1606
ifting	-1607
ocking	-1608
▁Right	-1609
▁ankle	-1610
▁apply	-1611
▁balls	-1612
▁books	-1613
▁cloth	-1614
▁forth	-1615
▁index	-1616
▁least	-1617
▁polit	-1618
▁ruler	-1619
▁sciss	-1620
▁sizes	-1621
▁takes	-1622
▁tools	-1623
▁tough	-1624
▁wheel	-1625
ational	-1626
▁actual	-1627
▁allows	-1628
▁become	-1629
▁common	-1630
▁contin	-1631
▁decide	-1632
▁energy	-1633
▁extend	-1634
▁headsh	-1635
▁longer	-1636
▁minute	-1637
▁pencil	-1638
▁reason	-1639
▁square	-1640
▁stitch	-1641
▁trophy	-1642
▁window	-1643
ometimes	-1644
▁kicking	-1645
▁looking	-1646
▁machine	-1647
▁prepare	-1648
▁release	-1649
▁tension	-1650
▁vendors	-1651
▁Remember	-1652
▁dealersh	-1653
▁exercise	-1654
▁products	-1655
▁shoulder	-1656
▁somebody	-1657
▁everybody	-1658
▁mentioned	-1659
▁shoulders	-1660
▁ingredients	-1661
▁interesting	-1662
",	-1663
AN	-1664
fl	-1665
▁9	-1666
alm	-1667
arr	-1668
eem	-1669
ert	-1670
erv	-1671
ery	-1672
gan	-1673
ias	-1674
ina	-1675
irr	-1676
nam	-1677
oes	-1678
oid	-1679
osa	-1680
the	-1681
uce	-1682
ues	-1683
▁15	-1684
▁Go	-1685
▁Re	-1686
▁ca	-1687
ages	-1688
alty	-1689
ents	-1690
hand	-1691
iced	-1692
iend	-1693
inch	-1694
iple	-1695
ject	-1696
just	-1697
mare	-1698
ours	-1699
raid	-1700
rect	-1701
wise	-1702
zard	-1703
▁Not	-1704
▁air	-1705
▁bab	-1706
▁bed	-1707
▁ele	-1708
▁hur	-1709
▁ill	-1710
▁inv	-1711
▁nat	-1712
▁opt	-1713
▁pad	-1714
▁pop	-1715
▁rub	-1716
▁ter	-1717
▁tor	-1718
▁tun	-1719
▁wee	-1720
arily	-1721
edium	-1722
ently	-1723
itive	-1724
meric	-1725
ocket	-1726
osite	-1727
xture	-1728
▁beer	-1729
▁bend	-1730
▁conf	-1731
▁cook	-1732
▁cord	-1733
▁heel	-1734
▁hund	-1735
▁inst	-1736
▁life	-1737
▁mist	-1738
▁must	-1739
▁plus	-1740
▁repe	-1741
▁road	-1742
▁situ	-1743
▁soon	-1744
▁stud	-1745
▁tast	-1746
▁tumb	-1747
▁vict	-1748
▁wash	-1749
ground	-1750
▁Other	-1751
▁appet	-1752
▁areas	-1753
▁avoid	-1754
▁block	-1755
▁crawl	-1756
▁event	-1757
▁fleas	-1758
▁horse	-1759
▁hours	-1760
▁incre	-1761
▁juice	-1762
▁kicks	-1763
▁large	-1764
▁rough	-1765
▁sharp	-1766
▁slide	-1767
▁spots	-1768
▁taken	-1769
▁teach	-1770
▁women	-1771
▁world	-1772
▁wrink	-1773
▁wrong	-1774
etition	-1775
▁Americ	-1776
▁adjust	-1777
▁afraid	-1778
▁behind	-1779
▁bigger	-1780
▁breath	-1781
▁bunker	-1782
▁change	-1783
▁determ	-1784
▁esteem	-1785
▁friend	-1786
▁giving	-1787
▁guitar	-1788
▁inform	-1789
▁intern	-1790
▁larger	-1791
▁medium	-1792
▁motion	-1793
▁ounces	-1794
▁pocket	-1795
▁saddle	-1796
▁stores	-1797
▁therap	-1798
▁cabinet	-1799
▁correct	-1800
▁holding	-1801
▁hundred	-1802
▁lighter	-1803
▁natural	-1804
▁opposed	-1805
▁pattern	-1806
▁penalty	-1807
▁rocking	-1808
▁stapler	-1809
▁started	-1810
▁success	-1811
▁children	-1812
▁headshot	-1813
▁movement	-1814
▁opposite	-1815
▁personal	-1816
▁properly	-1817
▁starting	-1818
▁stepping	-1819
▁beautiful	-1820
▁depending	-1821
▁experience	-1822
▁demonstrate	-1823
▁information	-1824
▁necessarily	-1825
▁thermometer	-1826
".	-1827
az	-1828
ov	-1829
te	-1830
	-1831
▁4	-1832
▁6	-1833
▁z	-1834
ank	-1835
arl	-1836
ems	-1837
ico	-1838
ili	-1839
ior	-1840
oms	-1841
par	-1842
rew	-1843
rop	-1844
ule	-1845
urd	-1846
▁10	-1847
▁Ad	-1848
▁Br	-1849
▁De	-1850
▁Ok	-1851
▁Pl	-1852
▁fu	-1853
▁mi	-1854
adow	-1855
ager	-1856
eech	-1857
ense	-1858
enty	-1859
erer	-1860
fess	-1861
ices	-1862
ides	-1863
iest	-1864
ired	-1865
itle	-1866
ives	-1867
lies	-1868
ngth	-1869
ocus	-1870
oint	-1871
raph	-1872
rate	-1873
▁1/2	-1874
▁Are	-1875
▁San	-1876
▁bor	-1877
▁bow	-1878
▁deg	-1879
▁exc	-1880
▁fix	-1881
▁imm	-1882
▁len	-1883
▁mer	-1884
▁pot	-1885
▁sle	-1886
▁sym	-1887
▁tie	-1888
▁toe	-1889
▁yes	-1890
acked	-1891
cause	-1892
ellow	-1893
ening	-1894
plain	-1895
pring	-1896
rench	-1897
ribal	-1898
rylic	-1899
stick	-1900
▁Good	-1901
▁Take	-1902
▁With	-1903
▁baby	-1904
▁bene	-1905
▁burp	-1906
▁cage	-1907
▁clas	-1908
▁comb	-1909
▁cute	-1910
▁dead	-1911
▁dish	-1912
▁gain	-1913
▁grip	-1914
▁hill	-1915
▁iron	-1916
▁kits	-1917
▁murd	-1918
▁outf	-1919
▁palm	-1920
▁plac	-1921
▁salt	-1922
▁seat	-1923
▁seed	-1924
▁shap	-1925
▁ship	-1926
▁snap	-1927
▁turt	-1928
▁wipe	-1929
▁word	-1930
▁wrap	-1931
asting	-1932
ential	-1933
ightly	-1934
struct	-1935
▁blood	-1936
▁clear	-1937
▁cross	-1938
▁curve	-1939
▁dough	-1940
▁drain	-1941
▁elbow	-1942
▁favor	-1943
▁float	-1944
▁focus	-1945
▁fresh	-1946
▁funct	-1947
▁goals	-1948
▁grind	-1949
▁helps	-1950
▁keeps	-1951
▁lines	-1952
▁local	-1953
▁mixed	-1954
▁mouth	-1955
▁organ	-1956
▁parts	-1957
▁pearl	-1958
▁quite	-1959
▁reach	-1960
▁relax	-1961
▁separ	-1962
▁shake	-1963
▁title	-1964
▁tomat	-1965
▁works	-1966
ibility	-1967
ination	-1968
▁Tribal	-1969
▁across	-1970
▁anyway	-1971
▁dragon	-1972
▁easier	-1973
▁easily	-1974
▁effect	-1975
▁entire	-1976
▁handle	-1977
▁harder	-1978
▁health	-1979
▁length	-1980
▁powder	-1981
▁simply	-1982
▁skills	-1983
▁speech	-1984
▁switch	-1985
▁thrust	-1986
▁twenty	-1987
▁victim	-1988
▁yellow	-1989
▁acrylic	-1990
▁captain	-1991
▁chamele	-1992
▁clients	-1993
▁cracker	-1994
▁dollars	-1995
▁exactly	-1996
▁explain	-1997
▁flaming	-1998
▁growing	-1999
▁however	-2000
▁muscles	-2001
▁plastic	-2002
▁profess	-2003
▁regular	-2004
▁results	-2005
▁crawling	-2006
▁creature	-2007
▁electric	-2008
▁favorite	-2009
▁maintain	-2010
▁multiple	-2011
▁murderer	-2012
▁possible	-2013
▁scissors	-2014
▁standing	-2015
▁strength	-2016
▁Sometimes	-2017
▁materials	-2018
▁perfectly	-2019
▁tensioner	-2020
▁handspring	-2021
▁competition	-2022
▁flexibility	-2023
▁temperature	-2024
CD	-2025
OC	-2026
ny	-2027
ads	-2028
als	-2029
apt	-2030
ept	-2031
for	-2032
hin	-2033
nel	-2034
oga	-2035
oke	-2036
oma	-2037
oor	-2038
osm	-2039
ung	-2040
urs	-2041
▁30	-2042
▁Ar	-2043
▁Is	-2044
▁ap	-2045
▁ho	-2046
▁ut	-2047
▁ye	-2048
aler	-2049
alif	-2050
anna	-2051
aser	-2052
ases	-2053
aves	-2054
bell	-2055
chan	-2056
ency	-2057
erst	-2058
etic	-2059
gest	-2060
ince	-2061
ivid	-2062
omes	-2063
poon	-2064
uder	-2065
udge	-2066
wing	-2067
▁100	-2068
▁Dan	-2069
▁Don	-2070
▁Joe	-2071
▁May	-2072
▁OCD	-2073
▁VOC	-2074
▁adv	-2075
▁age	-2076
▁bat	-2077
▁bud	-2078
▁cue	-2079
▁dam	-2080
▁ice	-2081
▁pie	-2082
▁sub	-2083
▁tap	-2084
▁tas	-2085
▁tot	-2086
Night	-2087
chase	-2088
eding	-2089
fully	-2090
icing	-2091
iform	-2092
ilies	-2093
irror	-2094
iting	-2095
itter	-2096
ocosm	-2097
ublic	-2098
urity	-2099
▁acne	-2100
▁arch	-2101
▁brow	-2102
▁chop	-2103
▁cove	-2104
▁crew	-2105
▁crit	-2106
▁gone	-2107
▁hang	-2108
▁lamp	-2109
▁lean	-2110
▁lots	-2111
▁mart	-2112
▁mask	-2113
▁near	-2114
▁phot	-2115
▁pres	-2116
▁reps	-2117
▁resp	-2118
▁soft	-2119
▁stir	-2120
▁syst	-2121
▁tact	-2122
▁tele	-2123
▁tips	-2124
▁toen	-2125
▁trim	-2126
▁warm	-2127
▁wond	-2128
ancing	-2129
atures	-2130
cealer	-2131
irteen	-2132
ousand	-2133
though	-2134
▁After	-2135
▁China	-2136
▁accur	-2137
▁aroma	-2138
▁benef	-2139
▁chord	-2140
▁decor	-2141
▁edges	-2142
▁force	-2143
▁frame	-2144
▁heart	-2145
▁heels	-2146
▁ideas	-2147
▁kinds	-2148
▁knows	-2149
▁match	-2150
▁money	-2151
▁needs	-2152
▁ounce	-2153
▁party	-2154
▁poses	-2155
▁scrap	-2156
▁shirt	-2157
▁shoot	-2158
▁sides	-2159
▁smoke	-2160
▁solid	-2161
▁steam	-2162
▁stove	-2163
▁sunfl	-2164
▁taste	-2165
▁worth	-2166
erstand	-2167
▁access	-2168
▁amount	-2169
▁basket	-2170
▁cheese	-2171
▁cotton	-2172
▁deeper	-2173
▁diffic	-2174
▁during	-2175
▁effort	-2176
▁electr	-2177
▁excess	-2178
▁fairly	-2179
▁higher	-2180
▁immedi	-2181
▁killed	-2182
▁lizard	-2183
▁locked	-2184
▁mechan	-2185
▁mirror	-2186
▁native	-2187
▁needle	-2188
▁pulled	-2189
▁purple	-2190
▁secure	-2191
▁seeing	-2192
▁single	-2193
▁wrists	-2194
▁against	-2195
▁bicycle	-2196
▁brushes	-2197
▁burpies	-2198
▁clasped	-2199
▁clothes	-2200
▁covered	-2201
▁discuss	-2202
▁drawing	-2203
▁easiest	-2204
▁falling	-2205
▁feeling	-2206
▁flowers	-2207
▁individ	-2208
▁message	-2209
▁thinner	-2210
▁thrusts	-2211
▁uniform	-2212
▁workout	-2213
Nightmare	-2214
▁building	-2215
▁catching	-2216
▁continue	-2217
▁everyone	-2218
▁extruder	-2219
▁lipstick	-2220
▁problems	-2221
▁purchase	-2222
▁slightly	-2223
▁specific	-2224
▁supplies	-2225
▁thirteen	-2226
▁thousand	-2227
▁toenails	-2228
▁transfer	-2229
▁breathing	-2230
▁concealer	-2231
▁determine	-2232
▁direction	-2233
▁infection	-2234
▁marketing	-2235
▁situation	-2236
▁therapies	-2237
▁background	-2238
▁collection	-2239
▁dealership	-2240
▁difference	-2241
▁stretching	-2242
▁understand	-2243
▁application	-2244
▁professional	-2245
OS	-2246
bo	-2247
by	-2248
cc	-2249
eg	-2250
gg	-2251
ky	-2252
lo	-2253
lu	-2254
ns	-2255
yl	-2256
ym	-2257
▁5	-2258
alc	-2259
ead	-2260
erk	-2261
hal	-2262
hes	-2263
ify	-2264
ils	-2265
ins	-2266
jor	-2267
kin	-2268
lex	-2269
nia	-2270
nth	-2271
ode	-2272
ony	-2273
orb	-2274
por	-2275
ral	-2276
sel	-2277
ugh	-2278
uis	-2279
ura	-2280
vis	-2281
▁20	-2282
▁By	-2283
▁Cr	-2284
▁Do	-2285
▁Dr	-2286
▁Ir	-2287
▁Je	-2288
▁Ju	-2289
▁Pr	-2290
▁Sh	-2291
▁To	-2292
▁aw	-2293
▁da	-2294
ache	-2295
ancy	-2296
atic	-2297
etun	-2298
iate	-2299
ifty	-2300
igin	-2301
itor	-2302
land	-2303
lers	-2304
less	-2305
line	-2306
ming	-2307
ockt	-2308
ocol	-2309
ohol	-2310
okes	-2311
omin	-2312
orry	-2313
over	-2314
pers	-2315
pped	-2316
rees	-2317
umes	-2318
umps	-2319
utom	-2320
▁Cle	-2321
▁Get	-2322
▁Joh	-2323
▁Mex	-2324
▁New	-2325
▁ant	-2326
▁din	-2327
▁ess	-2328
▁fur	-2329
▁gre	-2330
▁hop	-2331
▁hum	-2332
▁isn	-2333
▁law	-2334
▁lea	-2335
▁led	-2336
▁mom	-2337
▁mor	-2338
▁nic	-2339
▁pan	-2340
▁rac	-2341
▁raf	-2342
▁rib	-2343
▁sim	-2344
▁sug	-2345
▁sum	-2346
▁sup	-2347
▁wet	-2348
aging	-2349
ashes	-2350
asons	-2351
board	-2352
ement	-2353
force	-2354
iding	-2355
ified	-2356
iness	-2357
iques	-2358
izers	-2359
light	-2360
lying	-2361
onges	-2362
ornia	-2363
ortun	-2364
▁Also	-2365
▁Even	-2366
▁Like	-2367
▁Most	-2368
▁blow	-2369
▁bowl	-2370
▁bump	-2371
▁caus	-2372
▁chef	-2373
▁chem	-2374
▁conn	-2375
▁core	-2376
▁cost	-2377
▁cups	-2378
▁deet	-2379
▁dirt	-2380
▁eyel	-2381
▁fift	-2382
▁fist	-2383
▁hous	-2384
▁imag	-2385
▁jobs	-2386
▁land	-2387
▁lead	-2388
▁live	-2389
▁lose	-2390
▁neck	-2391
▁nuts	-2392
▁page	-2393
▁past	-2394
▁port	-2395
▁rain	-2396
▁rule	-2397
▁sets	-2398
▁shoe	-2399
▁stem	-2400
▁tent	-2401
▁tire	-2402
▁vert	-2403
▁walk	-2404
▁week	-2405
▁wide	-2406
drated	-2407
ensive	-2408
icious	-2409
ipping	-2410
isting	-2411
itchen	-2412
selves	-2413
weight	-2414
▁Calif	-2415
▁Irish	-2416
▁above	-2417
▁adapt	-2418
▁apart	-2419
▁autom	-2420
▁basis	-2421
▁bones	-2422
▁brows	-2423
▁carry	-2424
▁coord	-2425
▁count	-2426
▁crown	-2427
▁dress	-2428
▁eaves	-2429
▁feels	-2430
▁fifty	-2431
▁fudge	-2432
▁fumes	-2433
▁guess	-2434
▁invol	-2435
▁kidne	-2436
▁moist	-2437
▁phone	-2438
▁plank	-2439
▁rocks	-2440
▁roots	-2441
▁screw	-2442
▁seats	-2443
▁since	-2444
▁sorry	-2445
▁space	-2446
▁speed	-2447
▁straw	-2448
▁tends	-2449
▁terms	-2450
▁trail	-2451
▁twist	-2452
▁waist	-2453
▁wings	-2454
ication	-2455
ocolate	-2456
▁Daniel	-2457
▁Exhale	-2458
▁absorb	-2459
▁altern	-2460
▁angles	-2461
▁bottle	-2462
▁budget	-2463
▁client	-2464
▁cloves	-2465
▁damage	-2466
▁degree	-2467
▁gloves	-2468
▁height	-2469
▁infant	-2470
▁issues	-2471
▁itself	-2472
▁keeper	-2473
▁knives	-2474
▁master	-2475
▁matter	-2476
▁mixing	-2477
▁moment	-2478
▁nicely	-2479
▁office	-2480
▁option	-2481
▁orange	-2482
▁paints	-2483
▁plants	-2484
▁repeat	-2485
▁shadow	-2486
▁shower	-2487
▁sounds	-2488
▁stress	-2489
▁system	-2490
▁thread	-2491
▁turtle	-2492
▁variet	-2493
▁wonder	-2494
▁America	-2495
▁Crocosm	-2496
▁becomes	-2497
▁colored	-2498
▁company	-2499
▁contact	-2500
▁dealing	-2501
▁designs	-2502
▁dragons	-2503
▁fifteen	-2504
▁fingert	-2505
▁friends	-2506
▁instead	-2507
▁kitchen	-2508
▁lifting	-2509
▁morning	-2510
▁players	-2511
▁problem	-2512
▁realize	-2513
▁seconds	-2514
▁shaking	-2515
▁special	-2516
▁various	-2517
▁version	-2518
▁accurate	-2519
▁breading	-2520
▁chemical	-2521
▁clippers	-2522
▁distance	-2523
▁negative	-2524
▁opportun	-2525
▁pictures	-2526
▁politics	-2527
▁pressing	-2528
▁security	-2529
▁spinning	-2530
▁standard	-2531
▁sticking	-2532
▁tumbling	-2533
▁wrinkles	-2534
▁attention	-2535
▁chocolate	-2536
▁cleansing	-2537
▁completed	-2538
▁treatment	-2539
▁California	-2540
▁everywhere	-2541
▁functional	-2542
▁individual	-2543
▁practicing	-2544
▁sunflowers	-2545
▁supporting	-2546
▁techniques	-2547
▁immediately	-2548
▁middleweight	-2549
▁environmental	-2550
AU	-2551
EN	-2552
ER	-2553
LL	-2554
RA	-2555
da	-2556
gn	-2557
hi	-2558
my	-2559
pe	-2560
sc	-2561
sp	-2562
ta	-2563
uf	-2564
ya	-2565
zy	-2566
▁7	-2567
aft	-2568
aid	-2569
aly	-2570
bee	-2571
eet	-2572
eng	-2573
era	-2574
ero	-2575
gon	-2576
ham	-2577
hus	-2578
ici	-2579
ira	-2580
irl	-2581
ken	-2582
mon	-2583
off	-2584
ram	-2585
rem	-2586
rid	-2587
sey	-2588
ued	-2589
uit	-2590
ume	-2591
wer	-2592
yst	-2593
▁80	-2594
▁90	-2595
▁CD	-2596
▁Fl	-2597
▁Gl	-2598
▁Gr	-2599
▁Le	-2600
▁Mr	-2601
▁hi	-2602
▁hy	-2603
▁oh	-2604
....	-2605
ades	-2606
aint	-2607
ames	-2608
apon	-2609
arch	-2610
arse	-2611
chet	-2612
chor	-2613
cket	-2614
come	-2615
ding	-2616
dles	-2617
fere	-2618
hill	-2619
hold	-2620
ibut	-2621
iche	-2622
ideo	-2623
ider	-2624
iger	-2625
iled	-2626
illa	-2627
ined	-2628
isel	-2629
ises	-2630
more	-2631
ners	-2632
orth	-2633
osis	-2634
play	-2635
rica	-2636
ship	-2637
ters	-2638
unct	-2639
wear	-2640
ying	-2641
▁Any	-2642
▁Cam	-2643
▁Com	-2644
▁Dep	-2645
▁Esp	-2646
▁Mor	-2647
▁Ore	-2648
▁bol	-2649
▁boy	-2650
▁bus	-2651
▁cel	-2652
▁cin	-2653
▁coo	-2654
▁die	-2655
▁fas	-2656
▁fat	-2657
▁gan	-2658
▁gym	-2659
▁ham	-2660
▁jog	-2661
▁kay	-2662
▁mar	-2663
▁med	-2664
▁mes	-2665
▁mil	-2666
▁occ	-2667
▁par	-2668
▁phy	-2669
▁pin	-2670
▁pli	-2671
▁pou	-2672
▁rum	-2673
▁saf	-2674
▁spl	-2675
▁unl	-2676
▁win	-2677
ables	-2678
ached	-2679
anies	-2680
apple	-2681
aring	-2682
ected	-2683
ident	-2684
igger	-2685
iliar	-2686
iling	-2687
inger	-2688
ining	-2689
isbee	-2690
ities	-2691
itted	-2692
ivate	-2693
izing	-2694
namon	-2695
ology	-2696
ought	-2697
phony	-2698
redit	-2699
resso	-2700
ribut	-2701
ufact	-2702
uffin	-2703
ulate	-2704
ungry	-2705
upply	-2706
ustin	-2707
▁Come	-2708
▁From	-2709
▁Home	-2710
▁Jeff	-2711
▁Juan	-2712
▁Many	-2713
▁Wave	-2714
▁Your	-2715
▁amaz	-2716
▁aren	-2717
▁arts	-2718
▁bare	-2719
▁bent	-2720
▁cake	-2721
▁came	-2722
▁choo	-2723
▁coat	-2724
▁cold	-2725
▁cuts	-2726
▁dehy	-2727
▁door	-2728
▁drug	-2729
▁ears	-2730
▁flav	-2731
▁flea	-2732
▁flow	-2733
▁guys	-2734
▁hear	-2735
▁heat	-2736
▁insp	-2737
▁isol	-2738
▁late	-2739
▁lear	-2740
▁liqu	-2741
▁list	-2742
▁lock	-2743
▁mana	-2744
▁meal	-2745
▁miss	-2746
▁mold	-2747
▁neat	-2748
▁nerv	-2749
▁none	-2750
▁pair	-2751
▁parr	-2752
▁prec	-2753
▁rece	-2754
▁resc	-2755
▁rhin	-2756
▁says	-2757
▁sens	-2758
▁soak	-2759
▁sour	-2760
▁swab	-2761
▁tail	-2762
▁task	-2763
▁teac	-2764
▁teas	-2765
▁test	-2766
▁tile	-2767
▁toes	-2768
▁wasn	-2769
▁yoga	-2770
anthus	-2771
ashion	-2772
ielder	-2773
igning	-2774
ingent	-2775
ipment	-2776
ishing	-2777
lights	-2778
ograph	-2779
ourish	-2780
rought	-2781
terior	-2782
▁Maybe	-2783
▁South	-2784
▁Thank	-2785
▁Watch	-2786
▁Which	-2787
▁added	-2788
▁adhes	-2789
▁angry	-2790
▁aware	-2791
▁blows	-2792
▁brain	-2793
▁broad	-2794
▁chair	-2795
▁chang	-2796
▁class	-2797
▁const	-2798
▁daily	-2799
▁dance	-2800
▁drill	-2801
▁drive	-2802
▁early	-2803
▁earth	-2804
▁enter	-2805
▁fancy	-2806
▁fight	-2807
▁haven	-2808
▁honey	-2809
▁horiz	-2810
▁integ	-2811
▁inter	-2812
▁issue	-2813
▁knead	-2814
▁laser	-2815
▁ledge	-2816
▁major	-2817
▁meerk	-2818
▁mount	-2819
▁moves	-2820
▁pinch	-2821
▁punch	-2822
▁raise	-2823
▁score	-2824
▁seeds	-2825
▁seems	-2826
▁seven	-2827
▁shaft	-2828
▁share	-2829
▁sheet	-2830
▁slack	-2831
▁sleep	-2832
▁smash	-2833
▁smear	-2834
▁speak	-2835
▁stain	-2836
▁story	-2837
▁stuck	-2838
▁swing	-2839
▁synth	-2840
▁torto	-2841
▁trust	-2842
▁tuner	-2843
▁twice	-2844
▁upper	-2845
▁video	-2846
▁wires	-2847
▁worry	-2848
▁yeast	-2849
estones	-2850
iciency	-2851
ocktail	-2852
ulation	-2853
umbbell	-2854
unately	-2855
▁Austin	-2856
▁Before	-2857
▁Either	-2858
▁French	-2859
▁Inhale	-2860
▁Mexico	-2861
▁Notice	-2862
▁Oregon	-2863
▁School	-2864
▁attack	-2865
▁blocks	-2866
▁border	-2867
▁bright	-2868
▁celery	-2869
▁chisel	-2870
▁closed	-2871
▁closer	-2872
▁coarse	-2873
▁commun	-2874
▁creamy	-2875
▁credit	-2876
▁dinosa	-2877
▁dollar	-2878
▁dramat	-2879
▁drinks	-2880
▁eating	-2881
▁flying	-2882
▁gently	-2883
▁ginger	-2884
▁graham	-2885
▁hungry	-2886
▁indoor	-2887
▁insert	-2888
▁kidney	-2889
▁laying	-2890
▁lesson	-2891
▁modern	-2892
▁muffin	-2893
▁needed	-2894
▁origin	-2895
▁poured	-2896
▁produc	-2897
▁racing	-2898
▁rather	-2899
▁recipe	-2900
▁refere	-2901
▁screen	-2902
▁seated	-2903
▁shapes	-2904
▁specif	-2905
▁spring	-2906
▁staple	-2907
▁sticks	-2908
▁summer	-2909
▁tingle	-2910
▁tricks	-2911
▁tunnel	-2912
▁wanted	-2913
▁weapon	-2914
asically	-2915
ineapple	-2916
ological	-2917
ribution	-2918
ufacture	-2919
▁Frisbee	-2920
▁agility	-2921
▁allowed	-2922
▁anymore	-2923
▁anytime	-2924
▁balloon	-2925
▁bottoms	-2926
▁breakup	-2927
▁concent	-2928
▁concern	-2929
▁consist	-2930
▁contain	-2931
▁display	-2932
▁enforce	-2933
▁filling	-2934
▁further	-2935
▁ganache	-2936
▁general	-2937
▁glitter	-2938
▁healing	-2939
▁ideally	-2940
▁imagine	-2941
▁keeping	-2942
▁leather	-2943
▁mixture	-2944
▁monitor	-2945
▁nervous	-2946
▁pageant	-2947
▁partner	-2948
▁picture	-2949
▁pitcher	-2950
▁playing	-2951
▁pointed	-2952
▁posture	-2953
▁project	-2954
▁rafting	-2955
▁reasons	-2956
▁rolling	-2957
▁rooting	-2958
▁stacked	-2959
▁staples	-2960
▁station	-2961
▁texture	-2962
▁thicker	-2963
▁trigger	-2964
▁vending	-2965
▁willing	-2966
ationship	-2967
struction	-2968
▁acanthus	-2969
▁although	-2970
▁anywhere	-2971
▁attached	-2972
▁benefits	-2973
▁bicycles	-2974
▁cinnamon	-2975
▁creating	-2976
▁critical	-2977
▁directly	-2978
▁espresso	-2979
▁exterior	-2980
▁flooring	-2981
▁increase	-2982
▁learning	-2983
▁overhand	-2984
▁overhead	-2985
▁prepared	-2986
▁relative	-2987
▁separate	-2988
▁speaking	-2989
▁students	-2990
▁symphony	-2991
▁tomatoes	-2992
▁Crocosmia	-2993
▁cardboard	-2994
▁companies	-2995
▁contribut	-2996
▁correctly	-2997
▁delicious	-2998
▁designing	-2999
▁difficult	-3000
▁effective	-3001
▁equipment	-3002
▁frontside	-3003
▁generally	-3004
▁hopefully	-3005
▁household	-3006
▁political	-3007
▁schooling	-3008
▁synthetic	-3009
▁thickness	-3010
▁toughness	-3011
▁typically	-3012
▁wonderful	-3013
▁Especially	-3014
▁chameleons	-3015
▁decorative	-3016
▁eventually	-3017
▁extraction	-3018
▁personally	-3019
▁productive	-3020
▁themselves	-3021
▁throughout	-3022
▁circulation	-3023
▁combination	-3024
▁enforcement	-3025
▁opportunity	-3026
▁rhinestones	-3027
▁distribution	-3028
▁relationship	-3029
▁requirements	-3030
▁specifically	-3031
▁functionality	-3032
▁international	-3033
%,	-3034
.,	-3035
.9	-3036
2-	-3037
Hi	-3038
RI	-3039
VI	-3040
aw	-3041
co	-3042
ey	-3043
ng	-3044
no	-3045
pr	-3046
,00	-3047
ald	-3048
alp	-3049
aps	-3050
aqu	-3051
avi	-3052
ays	-3053
ean	-3054
eep	-3055
emb	-3056
eps	-3057
ffe	-3058
gee	-3059
ggs	-3060
hod	-3061
iag	-3062
iew	-3063
inc	-3064
ini	-3065
iny	-3066
ios	-3067
irm	-3068
isk	-3069
ism	-3070
isp	-3071
ixt	-3072
led	-3073
let	-3074
lod	-3075
meg	-3076
mit	-3077
nes	-3078
nis	-3079
nna	-3080
nov	-3081
obe	-3082
ocr	-3083
odo	-3084
oll	-3085
oph	-3086
oul	-3087
rel	-3088
rod	-3089
ton	-3090
ube	-3091
urn	-3092
uts	-3093
van	-3094
xim	-3095
zer	-3096
zor	-3097
▁28	-3098
▁45	-3099
▁Mc	-3100
▁PK	-3101
▁Sw	-3102
▁UK	-3103
▁Un	-3104
▁Up	-3105
▁Us	-3106
▁bi	-3107
▁er	-3108
▁ga	-3109
▁ok	-3110
▁op	-3111
▁ov	-3112
,000	-3113
acks	-3114
adem	-3115
alam	-3116
aled	-3117
amps	-3118
anks	-3119
ants	-3120
ased	-3121
ateg	-3122
ates	-3123
brow	-3124
days	-3125
ecut	-3126
elve	-3127
emat	-3128
erry	-3129
etch	-3130
exas	-3131
food	-3132
hern	-3133
ibly	-3134
ifer	-3135
ilar	-3136
imal	-3137
immy	-3138
inel	-3139
iner	-3140
irds	-3141
irty	-3142
itas	-3143
ited	-3144
ival	-3145
kers	-3146
lass	-3147
llie	-3148
load	-3149
ocon	-3150
oice	-3151
olks	-3152
orph	-3153
osen	-3154
pose	-3155
reme	-3156
reya	-3157
rict	-3158
ried	-3159
roat	-3160
ropr	-3161
ubes	-3162
ustr	-3163
xoph	-3164
▁Art	-3165
▁Can	-3166
▁Chr	-3167
▁Dem	-3168
▁Did	-3169
▁Got	-3170
▁Her	-3171
▁Hip	-3172
▁Kom	-3173
▁Lay	-3174
▁Low	-3175
▁Luc	-3176
▁Pam	-3177
▁Rep	-3178
▁SOS	-3179
▁See	-3180
▁ace	-3181
▁arr	-3182
▁asp	-3183
▁ass	-3184
▁aud	-3185
▁dah	-3186
▁fry	-3187
▁fut	-3188
▁gel	-3189
▁inj	-3190
▁lad	-3191
▁lat	-3192
▁lit	-3193
▁nap	-3194
▁oth	-3195
▁pic	-3196
▁rag	-3197
▁rim	-3198
▁sch	-3199
▁scr	-3200
▁tar	-3201
▁ult	-3202
▁van	-3203
▁vis	-3204
▁wel	-3205
acted	-3206
alian	-3207
allel	-3208
alley	-3209
amber	-3210
anber	-3211
anced	-3212
angle	-3213
arent	-3214
arker	-3215
asing	-3216
aving	-3217
brows	-3218
domin	-3219
ental	-3220
esign	-3221
graph	-3222
illed	-3223
inety	-3224
ingue	-3225
istic	-3226
istle	-3227
oints	-3228
ooler	-3229
orpor	-3230
osaic	-3231
osing	-3232
oster	-3233
oving	-3234
pping	-3235
rovis	-3236
uckle	-3237
ugged	-3238
uiser	-3239
usion	-3240
ustom	-3241
veral	-3242
ycles	-3243
▁City	-3244
▁Code	-3245
▁Flex	-3246
▁Hand	-3247
▁John	-3248
▁Keep	-3249
▁Look	-3250
▁Nice	-3251
▁Pose	-3252
▁Step	-3253
▁astr	-3254
▁attr	-3255
▁beak	-3256
▁beta	-3257
▁brus	-3258
▁bulb	-3259
▁chin	-3260
▁clot	-3261
▁club	-3262
▁cork	-3263
▁crop	-3264
▁curl	-3265
▁cush	-3266
▁diag	-3267
▁dise	-3268
▁dogs	-3269
▁dull	-3270
▁dura	-3271
▁educ	-3272
▁eggs	-3273
▁ends	-3274
▁fant	-3275
▁feed	-3276
▁fest	-3277
▁firm	-3278
▁fish	-3279
▁fits	-3280
▁foul	-3281
▁fuel	-3282
▁garn	-3283
▁gear	-3284
▁golf	-3285
▁held	-3286
▁hint	-3287
▁hole	-3288
▁hops	-3289
▁hurt	-3290
▁jump	-3291
▁leaf	-3292
▁lips	-3293
▁luck	-3294
▁magn	-3295
▁mast	-3296
▁meet	-3297
▁mesh	-3298
▁mine	-3299
▁mini	-3300
▁nutr	-3301
▁oral	-3302
▁oyst	-3303
▁paid	-3304
▁phys	-3305
▁plug	-3306
▁prog	-3307
▁quad	-3308
▁quot	-3309
▁raft	-3310
▁rare	-3311
▁read	-3312
▁risk	-3313
▁seen	-3314
▁sent	-3315
▁serv	-3316
▁sess	-3317
▁shop	-3318
▁shut	-3319
▁sick	-3320
▁site	-3321
▁sixt	-3322
▁skip	-3323
▁sore	-3324
▁spir	-3325
▁tall	-3326
▁tear	-3327
▁term	-3328
▁thor	-3329
▁took	-3330
▁torn	-3331
▁trip	-3332
▁trou	-3333
▁true	-3334
▁tube	-3335
▁tuck	-3336
▁upon	-3337
▁uses	-3338
▁util	-3339
▁vari	-3340
▁vary	-3341
▁went	-3342
▁wine	-3343
▁wise	-3344
▁zone	-3345
alleng	-3346
ashing	-3347
aviors	-3348
chetta	-3349
driver	-3350
esting	-3351
haling	-3352
inator	-3353
lected	-3354
lodged	-3355
mostat	-3356
oconut	-3357
oholic	-3358
orphin	-3359
osters	-3360
resses	-3361
screen	-3362
uction	-3363
▁Adobe	-3364
▁Clean	-3365
▁Freya	-3366
▁Jones	-3367
▁Morse	-3368
▁North	-3369
▁Point	-3370
▁Pract	-3371
▁Punch	-3372
▁Ready	-3373
▁Start	-3374
▁Texas	-3375
▁Thurs	-3376
▁align	-3377
▁appro	-3378
▁avail	-3379
▁below	-3380
▁birds	-3381
▁bites	-3382
▁blast	-3383
▁bolts	-3384
▁broke	-3385
▁buyer	-3386
▁climb	-3387
▁clock	-3388
▁coats	-3389
▁crisp	-3390
▁distr	-3391
▁equal	-3392
▁facts	-3393
▁finer	-3394
▁flash	-3395
▁folks	-3396
▁fuels	-3397
▁gonna	-3398
▁guard	-3399
▁handy	-3400
▁hills	-3401
▁illum	-3402
▁known	-3403
▁laugh	-3404
▁loose	-3405
▁lower	-3406
▁lying	-3407
▁masks	-3408
▁metal	-3409
▁miles	-3410
▁month	-3411
▁music	-3412
▁offic	-3413
▁ollie	-3414
▁owner	-3415
▁petun	-3416
▁picks	-3417
▁plane	-3418
▁plaqu	-3419
▁poles	-3420
▁price	-3421
▁princ	-3422
▁prone	-3423
▁quest	-3424
▁razor	-3425
▁recyc	-3426
▁ridge	-3427
▁rolls	-3428
▁scalp	-3429
▁sewer	-3430
▁shift	-3431
▁shots	-3432
▁smell	-3433
▁squad	-3434
▁stage	-3435
▁steel	-3436
▁steps	-3437
▁strip	-3438
▁sugar	-3439
▁super	-3440
▁swabs	-3441
▁sweet	-3442
▁swirl	-3443
▁third	-3444
▁tooth	-3445
▁total	-3446
▁traum	-3447
▁tried	-3448
▁ultim	-3449
▁walls	-3450
▁wants	-3451
▁words	-3452
actions	-3453
anberry	-3454
atching	-3455
ecutive	-3456
ference	-3457
istance	-3458
ordable	-3459
outhern	-3460
ression	-3461
uncture	-3462
xophone	-3463
▁Africa	-3464
▁Cooler	-3465
▁Democr	-3466
▁Komodo	-3467
▁Lilies	-3468
▁Should	-3469
▁Spiced	-3470
▁Valley	-3471
▁adding	-3472
▁affect	-3473
▁anchor	-3474
▁barrel	-3475
▁bathed	-3476
▁broadc	-3477
▁broken	-3478
▁button	-3479
▁career	-3480
▁causes	-3481
▁choice	-3482
▁circle	-3483
▁curved	-3484
▁custom	-3485
▁dosing	-3486
▁elbows	-3487
▁equals	-3488
▁except	-3489
▁facing	-3490
▁future	-3491
▁headst	-3492
▁houses	-3493
▁inches	-3494
▁insect	-3495
▁integr	-3496
▁joints	-3497
▁leaves	-3498
▁legged	-3499
▁letter	-3500
▁levels	-3501
▁lifted	-3502
▁liquid	-3503
▁marker	-3504
▁method	-3505
▁mosaic	-3506
▁muscle	-3507
▁nearby	-3508
▁ninety	-3509
▁nutmeg	-3510
▁object	-3511
▁offers	-3512
▁online	-3513
▁others	-3514
▁pearls	-3515
▁placed	-3516
▁player	-3517
▁please	-3518
▁pliers	-3519
▁points	-3520
▁pounds	-3521
▁prefer	-3522
▁public	-3523
▁remain	-3524
▁remote	-3525
▁season	-3526
▁served	-3527
▁shaped	-3528
▁sketch	-3529
▁socket	-3530
▁sprint	-3531
▁stager	-3532
▁starts	-3533
▁sticky	-3534
▁stones	-3535
▁stoves	-3536
▁strike	-3537
▁stroke	-3538
▁submit	-3539
▁supply	-3540
▁swamps	-3541
▁tables	-3542
▁talked	-3543
▁target	-3544
▁tennis	-3545
▁throat	-3546
▁titled	-3547
▁tomato	-3548
▁travel	-3549
▁twelve	-3550
▁unique	-3551
▁versus	-3552
▁wouldn	-3553
atically	-3554
dominant	-3555
▁Flaming	-3556
▁Italian	-3557
▁Lucifer	-3558
▁Usually	-3559
▁alright	-3560
▁amazing	-3561
▁appropr	-3562
▁artwork	-3563
▁believe	-3564
▁biggest	-3565
▁booster	-3566
▁brewing	-3567
▁brought	-3568
▁buttons	-3569
▁catcher	-3570
▁chamber	-3571
▁coconut	-3572
▁corners	-3573
▁created	-3574
▁cruiser	-3575
▁cushion	-3576
▁dancing	-3577
▁defense	-3578
▁deliver	-3579
▁depends	-3580
▁disease	-3581
▁durable	-3582
▁effects	-3583
▁evening	-3584
▁eyelash	-3585
▁fabrics	-3586
▁factors	-3587
▁fashion	-3588
▁focused	-3589
▁freezer	-3590
▁garnish	-3591
▁grouped	-3592
▁hanging	-3593
▁hardest	-3594
▁himself	-3595
▁invoice	-3596
▁knuckle	-3597
▁learned	-3598
▁letters	-3599
▁lizards	-3600
▁manager	-3601
▁martial	-3602
▁martini	-3603
▁natives	-3604
▁neglect	-3605
▁nothing	-3606
▁noticed	-3607
▁obvious	-3608
▁options	-3609
▁organiz	-3610
▁oysters	-3611
▁package	-3612
▁placing	-3613
▁present	-3614
▁private	-3615
▁purpose	-3616
▁quicker	-3617
▁receive	-3618
▁reflect	-3619
▁repeats	-3620
▁saddles	-3621
▁several	-3622
▁shooter	-3623
▁showing	-3624
▁similar	-3625
▁sixteen	-3626
▁sliding	-3627
▁slipper	-3628
▁sponges	-3629
▁steamer	-3630
▁stencil	-3631
▁strokes	-3632
▁sucking	-3633
▁teacher	-3634
▁thought	-3635
▁threads	-3636
▁tighter	-3637
▁totally	-3638
▁trapped	-3639
▁trouble	-3640
▁variety	-3641
▁wearing	-3642
▁weather	-3643
▁welcome	-3644
▁wrinkle	-3645
▁writing	-3646
alcoholic	-3647
allenging	-3648
ufacturer	-3649
▁American	-3650
▁Cocktail	-3651
▁Republic	-3652
▁accessor	-3653
▁adaptive	-3654
▁adhesive	-3655
▁appetite	-3656
▁audience	-3657
▁boosters	-3658
▁breeding	-3659
▁bringing	-3660
▁business	-3661
▁cabinets	-3662
▁changing	-3663
▁clothing	-3664
▁complete	-3665
▁consider	-3666
▁crackers	-3667
▁creative	-3668
▁dinosaur	-3669
▁dramatic	-3670
▁elements	-3671
▁extended	-3672
▁eyebrows	-3673
▁familiar	-3674
▁festival	-3675
▁flamingo	-3676
▁footwear	-3677
▁happened	-3678
▁horizont	-3679
▁inspired	-3680
▁internal	-3681
▁location	-3682
▁meerkats	-3683
▁meringue	-3684
▁messages	-3685
▁mounting	-3686
▁parallel	-3687
▁patience	-3688
▁pitchers	-3689
▁pitching	-3690
▁placemat	-3691
▁positive	-3692
▁powerful	-3693
▁prevents	-3694
▁reaction	-3695
▁removing	-3696
▁required	-3697
▁resupply	-3698
▁selected	-3699
▁sentinel	-3700
▁sideways	-3701
▁smoothly	-3702
▁squeegee	-3703
▁strongly	-3704
▁teaspoon	-3705
▁tortoise	-3706
▁tumblers	-3707
▁vertical	-3708
▁Basically	-3709
▁Everybody	-3710
▁Thursdays	-3711
▁available	-3712
▁beginning	-3713
▁behaviors	-3714
▁chameleon	-3715
▁chemicals	-3716
▁constrict	-3717
▁cranberry	-3718
▁developed	-3719
▁developer	-3720
▁dislodged	-3721
▁essential	-3722
▁finishing	-3723
▁happening	-3724
▁increases	-3725
▁movements	-3726
▁necessary	-3727
▁pineapple	-3728
▁potential	-3729
▁preparing	-3730
▁realistic	-3731
▁saxophone	-3732
▁separated	-3733
▁sharpener	-3734
▁sunscreen	-3735
▁telegraph	-3736
fortunately	-3737
▁affordable	-3738
▁afterwards	-3739
▁appetizers	-3740
▁applicable	-3741
▁astringent	-3742
▁bruschetta	-3743
▁containers	-3744
▁deficiency	-3745
▁dehydrated	-3746
▁fingertips	-3747
▁importance	-3748
▁ingredient	-3749
▁mechanical	-3750
▁preference	-3751
▁prevention	-3752
▁production	-3753
▁protection	-3754
▁quotations	-3755
▁tablespoon	-3756
▁thermostat	-3757
▁beautifully	-3758
▁challenging	-3759
▁contrasting	-3760
▁coordinator	-3761
▁dealerships	-3762
▁electrology	-3763
▁flamingosis	-3764
▁screwdriver	-3765
▁technically	-3766
▁construction	-3767
▁manufacturer	-3768
▁measurements	-3769
▁particularly	-3770
▁temperatures	-3771
▁automatically	-3772
▁communication	-3773
."	-3774
15	-3775
6,	-3776
DE	-3777
FO	-3778
HA	-3779
OP	-3780
RD	-3781
cr	-3782
ek	-3783
ew	-3784
go	-3785
mp	-3786
ok	-3787
py	-3788
ru	-3789
tz	-3790
ux	-3791
.99	-3792
EDE	-3793
Fre	-3794
HRI	-3795
acy	-3796
adr	-3797
alk	-3798
aln	-3799
sy	-3800
ado	-3801
ala	-3802
amm	-3803
ana	-3804
ari	-3805
ayf	-3806
bit	-3807
blo	-3808
bol	-3809
bor	-3810
bre	-3811
bur	-3812
ced	-3813
cot	-3814
ded	-3815
eed	-3816
eek	-3817
ege	-3818
elt	-3819
ema	-3820
eru	-3821
eta	-3822
etr	-3823
ety	-3824
exp	-3825
ext	-3826
fty	-3827
gar	-3828
gle	-3829
gus	-3830
hev	-3831
hey	-3832
how	-3833
iam	-3834
ibi	-3835
ief	-3836
igz	-3837
ilt	-3838
iob	-3839
iod	-3840
lev	-3841
lle	-3842
lud	-3843
mes	-3844
min	-3845
ndm	-3846
nds	-3847
ned	-3848
nic	-3849
olf	-3850
onn	-3851
oof	-3852
oti	-3853
pet	-3854
pty	-3855
rec	-3856
rez	-3857
rup	-3858
sec	-3859
sol	-3860
tah	-3861
tia	-3862
tip	-3863
top	-3864
ude	-3865
uer	-3866
uge	-3867
ula	-3868
uni	-3869
unk	-3870
utt	-3871
uty	-3872
vas	-3873
ved	-3874
via	-3875
you	-3876
▁1.	-3877
▁19	-3878
▁24	-3879
▁32	-3880
▁6-	-3881
▁AL	-3882
▁Am	-3883
▁CL	-3884
▁Cl	-3885
▁Co	-3886
▁Di	-3887
▁Kn	-3888
▁La	-3889
▁MS	-3890
▁No	-3891
▁Of	-3892
▁Oh	-3893
▁Sc	-3894
▁TV	-3895
▁Tr	-3896
▁Tw	-3897
▁Ve	-3898
▁ce	-3899
▁dy	-3900
▁ep	-3901
▁ol	-3902
AURA	-3903
HRIS	-3904
Vera	-3905
acra	-3906
adio	-3907
agle	-3908
ahlu	-3909
aked	-3910
akes	-3911
alks	-3912
alth	-3913
anan	-3914
apps	-3915
arms	-3916
auty	-3917
band	-3918
bern	-3919
crip	-3920
elic	-3921
elly	-3922
eman	-3923
ench	-3924
enie	-3925
esan	-3926
heit	-3927
here	-3928
hies	-3929
iant	-3930
iday	-3931
ided	-3932
idel	-3933
idge	-3934
idth	-3935
ienc	-3936
ille	-3937
imum	-3938
imun	-3939
imus	-3940
inal	-3941
irth	-3942
ised	-3943
istr	-3944
isty	-3945
ivil	-3946
lace	-3947
lied	-3948
mith	-3949
olut	-3950
onal	-3951
onse	-3952
orsi	-3953
orts	-3954
oses	-3955
oura	-3956
oust	-3957
outs	-3958
oven	-3959
pack	-3960
phia	-3961
ploy	-3962
ppal	-3963
pril	-3964
psom	-3965
quis	-3966
rail	-3967
rams	-3968
rase	-3969
rent	-3970
rick	-3971
room	-3972
ryny	-3973
sell	-3974
seye	-3975
stud	-3976
sych	-3977
teen	-3978
they	-3979
this	-3980
tzky	-3981
uchi	-3982
ucks	-3983
udio	-3984
uing	-3985
ulio	-3986
ulty	-3987
urse	-3988
used	-3989
uter	-3990
veen	-3991
west	-3992
xels	-3993
▁12-	-3994
▁15%	-3995
▁151	-3996
▁ALL	-3997
▁Ann	-3998
▁BAN	-3999
▁73	-4000
azes	-4001
door	-4002
ette	-4003
haps	-4004
irab	-4005
ramb	-4006
ught	-4007
▁30-	-4008
▁Bar	-4009
▁Bel	-4010
▁Bob	-4011
▁Bow	-4012
▁Cap	-4013
▁Exp	-4014
▁Gal	-4015
▁Gut	-4016
▁Imp	-4017
▁Inc	-4018
▁Its	-4019
▁Jay	-4020
▁Jim	-4021
▁Jon	-4022
▁Kne	-4023
▁Kos	-4024
▁Man	-4025
▁Mar	-4026
▁Mas	-4027
▁McL	-4028
▁Off	-4029
▁Our	-4030
▁Pac	-4031
▁Pre	-4032
▁Put	-4033
▁Ren	-4034
▁Res	-4035
▁Rob	-4036
▁Rus	-4037
▁Sal	-4038
▁Set	-4039
▁Spa	-4040
▁Sun	-4041
▁Syl	-4042
▁Try	-4043
▁Van	-4044
▁Vis	-4045
▁Wed	-4046
▁Wow	-4047
▁Yes	-4048
▁Yok	-4049
▁ach	-4050
▁ago	-4051
▁alc	-4052
▁ble	-4053
▁bon	-4054
▁bub	-4055
▁cam	-4056
▁cod	-4057
▁dab	-4058
▁dip	-4059
▁dot	-4060
▁eng	-4061
▁fac	-4062
▁fah	-4063
▁fil	-4064
▁fus	-4065
▁gas	-4066
▁gro	-4067
▁gum	-4068
▁gun	-4069
▁guy	-4070
▁hat	-4071
▁ink	-4072
▁inp	-4073
▁irr	-4074
▁jud	-4075
▁kar	-4076
▁kic	-4077
▁lab	-4078
▁lap	-4079
▁log	-4080
▁men	-4081
▁mob	-4082
▁nar	-4083
▁net	-4084
▁nob	-4085
▁pep	-4086
▁pum	-4087
▁pup	-4088
▁rad	-4089
▁raw	-4090
▁ret	-4091
▁ric	-4092
▁rod	-4093
▁sat	-4094
▁saw	-4095
▁sen	-4096
▁sne	-4097
▁sta	-4098
▁tan	-4099
VIN	-4100
aws	-4101
FORD	-4102
▁unc	-4103
▁vac	-4104
▁vel	-4105
▁vib	-4106
▁vol	-4107
▁war	-4108
▁wax	-4109
▁wra	-4110
acity	-4111
acter	-4112
adder	-4113
ahlua	-4114
ality	-4115
alyze	-4116
ances	-4117
antee	-4118
asion	-4119
assia	-4120
aster	-4121
ategy	-4122
atory	-4123
balls	-4124
beral	-4125
birds	-4126
bloom	-4127
cious	-4128
edule	-4129
eight	-4130
eling	-4131
ences	-4132
erset	-4133
ewart	-4134
gical	-4135
glass	-4136
gnant	-4137
hadow	-4138
ibiot	-4139
icine	-4140
icism	-4141
icles	-4142
idian	-4143
iever	-4144
ieves	-4145
igzag	-4146
imply	-4147
inary	-4148
ipate	-4149
ipped	-4150
ision	-4151
issue	-4152
itect	-4153
itele	-4154
itial	-4155
ivers	-4156
ivity	-4157
lymer	-4158
mento	-4159
nergy	-4160
ograp	-4161
olden	-4162
onent	-4163
oness	-4164
ooked	-4165
opped	-4166
orial	-4167
ormal	-4168
overy	-4169
phone	-4170
plant	-4171
remel	-4172
rible	-4173
rican	-4174
ridge	-4175
rooms	-4176
storm	-4177
ucial	-4178
ucive	-4179
ustry	-4180
utral	-4181
vanic	-4182
watch	-4183
while	-4184
▁Aloe	-4185
▁Arms	-4186
▁Back	-4187
▁Bott	-4188
▁Chev	-4189
▁Choo	-4190
▁Comp	-4191
▁Deep	-4192
▁Does	-4193
▁Down	-4194
▁Elev	-4195
▁Emer	-4196
▁Find	-4197
▁Ford	-4198
▁Free	-4199
EDEAU	-4200
adras	-4201
cotch	-4202
ludes	-4203
▁Gard	-4204
▁Gira	-4205
▁Golf	-4206
▁Hold	-4207
▁Hope	-4208
▁Isle	-4209
▁Jose	-4210
▁King	-4211
▁Lars	-4212
▁Left	-4213
▁Mont	-4214
▁Nutt	-4215
▁Peru	-4216
▁Port	-4217
▁Pull	-4218
▁Retr	-4219
▁Russ	-4220
▁Stan	-4221
▁Stay	-4222
▁Such	-4223
▁Thru	-4224
▁Turn	-4225
▁Utah	-4226
▁Yoga	-4227
▁York	-4228
▁acup	-4229
▁adds	-4230
▁bill	-4231
▁bras	-4232
▁bull	-4233
▁buys	-4234
▁calc	-4235
▁cand	-4236
▁cart	-4237
▁cass	-4238
▁char	-4239
▁clum	-4240
▁cogn	-4241
▁coqu	-4242
▁crow	-4243
▁died	-4244
▁diet	-4245
▁donâ	-4246
▁dots	-4247
▁duck	-4248
▁duty	-4249
▁eats	-4250
▁fasc	-4251
▁felt	-4252
▁fema	-4253
▁frig	-4254
▁gard	-4255
▁gels	-4256
▁gold	-4257
▁guar	-4258
▁hist	-4259
▁hits	-4260
▁inso	-4261
▁itch	-4262
▁jayf	-4263
▁keys	-4264
▁king	-4265
▁link	-4266
▁maln	-4267
▁marr	-4268
▁mass	-4269
▁memb	-4270
▁ment	-4271
▁mike	-4272
▁milk	-4273
▁mitt	-4274
▁myth	-4275
▁nail	-4276
▁oval	-4277
▁parm	-4278
▁pill	-4279
▁pipe	-4280
▁pole	-4281
▁pool	-4282
▁poor	-4283
▁pore	-4284
▁prey	-4285
▁prim	-4286
▁puff	-4287
▁purs	-4288
▁puts	-4289
▁rack	-4290
▁rear	-4291
▁rele	-4292
▁rese	-4293
▁retr	-4294
▁ring	-4295
▁role	-4296
▁rust	-4297
▁safe	-4298
▁sink	-4299
▁sits	-4300
▁slam	-4301
▁slap	-4302
▁slop	-4303
▁soap	-4304
▁stat	-4305
▁suit	-4306
▁taut	-4307
▁tiny	-4308
▁tops	-4309
▁toss	-4310
▁trap	-4311
▁unit	-4312
▁view	-4313
▁wake	-4314
▁warn	-4315
▁weak	-4316
▁webs	-4317
▁wild	-4318
▁wing	-4319
▁woke	-4320
▁yeah	-4321
▁youâ	-4322
▁zero	-4323
Hikers	-4324
achian	-4325
ananas	-4326
atever	-4327
bretia	-4328
eather	-4329
elicia	-4330
ending	-4331
ensils	-4332
garine	-4333
giving	-4334
hinage	-4335
icient	-4336
ierrez	-4337
ighbor	-4338
inated	-4339
inting	-4340
ioball	-4341
itment	-4342
itters	-4343
loaded	-4344
nesday	-4345
nesses	-4346
ooping	-4347
osting	-4348
oustic	-4349
ovable	-4350
remely	-4351
second	-4352
stitch	-4353
string	-4354
warded	-4355
▁ALVIN	-4356
▁Appal	-4357
▁April	-4358
▁Belly	-4359
▁Blend	-4360
▁Bruni	-4361
▁CHRIS	-4362
▁Camas	-4363
▁Cause	-4364
▁Chest	-4365
▁Chico	-4366
▁Clear	-4367
▁Coast	-4368
▁Dance	-4369
▁DeFre	-4370
▁Doing	-4371
▁Epsom	-4372
▁Gener	-4373
▁Grass	-4374
▁Green	-4375
▁Julio	-4376
▁Kryny	-4377
▁LAURA	-4378
▁Miche	-4379
▁Mount	-4380
▁Never	-4381
▁Nurse	-4382
▁Petun	-4383
▁Power	-4384
▁Radio	-4385
▁Sacra	-4386
▁Slide	-4387
▁Their	-4388
▁Think	-4389
▁Those	-4390
▁Thumb	-4391
▁Trail	-4392
▁Using	-4393
▁Where	-4394
▁activ	-4395
▁admin	-4396
▁adult	-4397
▁alway	-4398
▁basin	-4399
▁beaks	-4400
▁birth	-4401
▁blown	-4402
▁bread	-4403
▁calam	-4404
▁canoe	-4405
▁cargo	-4406
▁cases	-4407
▁categ	-4408
▁chain	-4409
▁cheek	-4410
▁chefs	-4411
▁chick	-4412
▁civil	-4413
▁claws	-4414
▁clips	-4415
▁clove	-4416
▁colum	-4417
▁costs	-4418
▁couch	-4419
▁crazy	-4420
▁creme	-4421
▁crepe	-4422
▁crust	-4423
▁cubes	-4424
▁doors	-4425
▁dorsi	-4426
▁drawn	-4427
▁dried	-4428
▁drips	-4429
▁dynam	-4430
▁empty	-4431
▁ended	-4432
▁falls	-4433
▁flame	-4434
▁floss	-4435
▁forty	-4436
▁frequ	-4437
▁fried	-4438
▁funny	-4439
▁gauge	-4440
▁genie	-4441
▁grass	-4442
▁grill	-4443
▁grown	-4444
▁habit	-4445
▁happy	-4446
▁holes	-4447
▁hooks	-4448
▁horns	-4449
▁hurts	-4450
▁inexp	-4451
▁influ	-4452
▁injur	-4453
▁inner	-4454
▁innov	-4455
▁irrit	-4456
▁kayak	-4457
▁kinda	-4458
▁knots	-4459
▁lefty	-4460
▁lemon	-4461
▁likes	-4462
▁liter	-4463
▁liver	-4464
▁loved	-4465
▁lucky	-4466
▁lunch	-4467
▁males	-4468
▁manip	-4469
▁matte	-4470
▁maxim	-4471
▁meant	-4472
▁meter	-4473
▁mixes	-4474
▁noise	-4475
▁offer	-4476
▁ought	-4477
▁pants	-4478
▁photo	-4479
▁plain	-4480
▁plate	-4481
▁pound	-4482
▁probe	-4483
▁prong	-4484
▁psych	-4485
▁queen	-4486
▁quote	-4487
▁races	-4488
▁range	-4489
▁refer	-4490
▁salon	-4491
▁sauce	-4492
▁saved	-4493
▁scene	-4494
▁sense	-4495
▁shade	-4496
▁shout	-4497
▁sieve	-4498
▁signs	-4499
▁spect	-4500
▁spend	-4501
▁spill	-4502
▁split	-4503
▁squat	-4504
▁state	-4505
▁sting	-4506
▁stock	-4507
▁taped	-4508
▁tasks	-4509
▁tears	-4510
▁tells	-4511
▁thigh	-4512
▁tiger	-4513
▁topic	-4514
▁trace	-4515
▁veter	-4516
▁walks	-4517
▁weeke	-4518
▁weren	-4519
▁width	-4520
▁woman	-4521
▁woven	-4522
▁yards	-4523
▁yours	-4524
ability	-4525
because	-4526
chnapps	-4527
esigner	-4528
ilizers	-4529
iratory	-4530
issimus	-4531
itioner	-4532
mostats	-4533
olutely	-4534
ossible	-4535
renheit	-4536
reshing	-4537
ressive	-4538
studios	-4539
▁Around	-4540
▁Bowler	-4541
▁Christ	-4542
▁Coming	-4543
▁DEDEAU	-4544
▁Deanna	-4545
▁Dremel	-4546
▁Energy	-4547
▁Fusion	-4548
▁Gloves	-4549
▁Golden	-4550
▁Health	-4551
▁Jonsey	-4552
▁Kahlua	-4553
▁McLean	-4554
▁Myrick	-4555
▁Parker	-4556
▁Pretty	-4557
▁Really	-4558
▁Simply	-4559
▁Sophia	-4560
▁Spring	-4561
▁Studio	-4562
▁Switch	-4563
▁Sylvia	-4564
▁Veiled	-4565
▁Visual	-4566
▁academ	-4567
▁accent	-4568
▁active	-4569
▁adults	-4570
▁affili	-4571
▁animal	-4572
▁ankles	-4573
▁artist	-4574
▁aspect	-4575
▁barely	-4576
▁basics	-4577
▁became	-4578
▁begins	-4579
▁blades	-4580
▁blends	-4581
▁boring	-4582
▁bought	-4583
▁brands	-4584
▁cables	-4585
▁camera	-4586
▁canvas	-4587
▁carpet	-4588
▁chance	-4589
▁clumps	-4590
▁collar	-4591
▁cooked	-4592
▁cookie	-4593
▁cooper	-4594
▁cottin	-4595
▁cracks	-4596
▁cycles	-4597
▁darker	-4598
▁dental	-4599
▁differ	-4600
▁dissol	-4601
▁drawer	-4602
▁eleven	-4603
▁embell	-4604
▁employ	-4605
▁ending	-4606
▁eraser	-4607
▁essent	-4608
▁events	-4609
▁excuse	-4610
▁expand	-4611
▁expert	-4612
▁extern	-4613
▁extras	-4614
▁faster	-4615
▁feisty	-4616
▁filter	-4617
▁flashy	-4618
▁flavor	-4619
▁formal	-4620
▁frames	-4621
▁frustr	-4622
▁fungus	-4623
▁glazes	-4624
▁goalie	-4625
▁grandm	-4626
▁greens	-4627
▁groups	-4628
▁guidel	-4629
▁hammer	-4630
▁handed	-4631
▁hazard	-4632
▁hibern	-4633
▁hiding	-4634
▁highly	-4635
▁humans	-4636
▁incred	-4637
▁indeed	-4638
▁karate	-4639
▁kicked	-4640
▁ladies	-4641
▁lastly	-4642
▁likely	-4643
▁listen	-4644
▁loosen	-4645
▁masala	-4646
▁modify	-4647
▁mostly	-4648
▁napkin	-4649
▁narrow	-4650
▁nights	-4651
▁nobody	-4652
▁normal	-4653
▁outfit	-4654
▁paddle	-4655
▁passes	-4656
▁pastry	-4657
▁paying	-4658
▁pepper	-4659
▁period	-4660
▁picnic	-4661
▁pixels	-4662
▁portra	-4663
▁pricey	-4664
▁proced	-4665
▁pumice	-4666
▁raised	-4667
▁record	-4668
▁refine	-4669
▁repair	-4670
▁reprod	-4671
▁rescue	-4672
▁result	-4673
▁resume	-4674
▁ridges	-4675
▁riding	-4676
▁rubber	-4677
▁safety	-4678
▁salary	-4679
▁salmon	-4680
▁scramb	-4681
▁sealed	-4682
▁search	-4683
▁shimmy	-4684
▁shorts	-4685
▁signal	-4686
▁smoked	-4687
▁soften	-4688
▁source	-4689
▁splash	-4690
▁sports	-4691
▁sprays	-4692
▁squads	-4693
▁squeez	-4694
▁stable	-4695
▁stalks	-4696
▁stance	-4697
▁stands	-4698
▁straws	-4699
▁stream	-4700
▁strict	-4701
▁studio	-4702
▁symbol	-4703
▁thirty	-4704
▁thumbs	-4705
▁tissue	-4706
▁toward	-4707
▁towels	-4708
▁tricky	-4709
▁trucks	-4710
▁unless	-4711
▁washed	-4712
▁wounds	-4713
▁zigzag	-4714
adrasana	-4715
ameleons	-4716
blooming	-4717
halation	-4718
ibiotics	-4719
iciently	-4720
imunuchi	-4721
itecture	-4722
ographer	-4723
otiating	-4724
ressions	-4725
structor	-4726
tainment	-4727
▁BANFORD	-4728
▁Believe	-4729
▁Bottoms	-4730
▁Captain	-4731
▁Emerald	-4732
▁Felicia	-4733
▁Giraffe	-4734
▁Hitting	-4735
▁However	-4736
▁Johanna	-4737
▁Lifting	-4738
▁Mascara	-4739
▁Pacific	-4740
▁Presses	-4741
▁Russell	-4742
▁Sponges	-4743
▁Stewart	-4744
▁Tritele	-4745
▁Washing	-4746
▁achieve	-4747
▁advance	-4748
▁alcohol	-4749
▁analyze	-4750
▁applied	-4751
▁awarded	-4752
▁bananas	-4753
▁baseman	-4754
▁bending	-4755
▁bladder	-4756
▁blowing	-4757
▁breathe	-4758
▁calling	-4759
▁ceiling	-4760
▁central	-4761
▁chilled	-4762
▁choices	-4763
▁classic	-4764
▁cleaned	-4765
▁cleaner	-4766
▁cleanse	-4767
▁clearly	-4768
▁closely	-4769
▁closest	-4770
▁college	-4771
▁confuse	-4772
▁connect	-4773
▁context	-4774
▁cooking	-4775
▁country	-4776
▁cracked	-4777
▁creates	-4778
▁crucial	-4779
▁current	-4780
▁decided	-4781
▁degrees	-4782
▁desired	-4783
▁details	-4784
▁dropped	-4785
▁efforts	-4786
▁exposed	-4787
▁extreme	-4788
▁fairway	-4789
▁feature	-4790
▁feeding	-4791
▁females	-4792
▁finding	-4793
▁fitness	-4794
▁flashes	-4795
▁flavors	-4796
▁footage	-4797
▁forearm	-4798
▁gaining	-4799
▁grinder	-4800
▁handles	-4801
▁heating	-4802
▁heavier	-4803
▁helping	-4804
▁highest	-4805
▁history	-4806
▁housing	-4807
▁humming	-4808
▁initial	-4809
▁insects	-4810
▁leaning	-4811
▁leaving	-4812
▁letting	-4813
▁liberal	-4814
▁located	-4815
▁mailing	-4816
▁married	-4817
▁masking	-4818
▁massage	-4819
▁matches	-4820
▁meaning	-4821
▁medical	-4822
▁mediums	-4823
▁members	-4824
▁minimum	-4825
▁mistake	-4826
▁netting	-4827
▁neutral	-4828
▁nourish	-4829
▁officer	-4830
▁opacity	-4831
▁opening	-4832
▁outdoor	-4833
▁painted	-4834
▁palming	-4835
▁papilla	-4836
▁parrots	-4837
▁passing	-4838
▁perhaps	-4839
▁plaques	-4840
▁polymer	-4841
▁precise	-4842
▁princip	-4843
▁produce	-4844
▁protect	-4845
▁pulling	-4846
▁quadric	-4847
▁radiate	-4848
▁reading	-4849
▁referee	-4850
▁regions	-4851
▁remover	-4852
▁removes	-4853
▁replace	-4854
▁rescuer	-4855
▁respond	-4856
▁roughly	-4857
▁rounded	-4858
▁rubbing	-4859
▁sanders	-4860
▁scissor	-4861
▁selling	-4862
▁serious	-4863
▁service	-4864
▁serving	-4865
▁session	-4866
▁setting	-4867
▁shouldn	-4868
▁somehow	-4869
▁sources	-4870
▁stained	-4871
▁starter	-4872
▁staunch	-4873
▁steamed	-4874
▁stripes	-4875
▁suction	-4876
▁suggest	-4877
▁tactics	-4878
▁tapping	-4879
▁testing	-4880
▁therapy	-4881
▁tighten	-4882
▁topical	-4883
▁touched	-4884
▁touches	-4885
▁trained	-4886
▁turning	-4887
▁turtles	-4888
▁upwards	-4889
▁vanilla	-4890
▁vibrate	-4891
▁waiting	-4892
▁walking	-4893
▁washing	-4894
▁weaving	-4895
▁weights	-4896
▁whistle	-4897
▁whoever	-4898
▁windows	-4899
▁worried	-4900
endorphin	-4901
sometimes	-4902
▁Although	-4903
▁Camassia	-4904
▁Democrat	-4905
▁Designer	-4906
▁Dumbbell	-4907
▁Galvanic	-4908
▁Improvis	-4909
▁Michelle	-4910
▁Mountain	-4911
▁Portland	-4912
▁Shoulder	-4913
▁Southern	-4914
▁Whatever	-4915
▁Whenever	-4916
▁acoustic	-4917
▁acrylics	-4918
▁advanced	-4919
▁allowing	-4920
▁approach	-4921
▁attacker	-4922
▁baseball	-4923
▁birthday	-4924
▁breakups	-4925
▁brushing	-4926
▁budgeted	-4927
▁bullseye	-4928
▁calamari	-4929
▁category	-4930
▁chopping	-4931
▁clipping	-4932
▁clumping	-4933
▁computer	-4934
▁concentr	-4935
▁concerns	-4936
▁confused	-4937
▁contract	-4938
▁coquille	-4939
▁covering	-4940
▁customer	-4941
▁decision	-4942
▁designed	-4943
▁diagonal	-4944
▁downward	-4945
▁dripping	-4946
▁dumbbell	-4947
▁enjoying	-4948
▁families	-4949
▁features	-4950
▁finished	-4951
▁flathead	-4952
▁flavored	-4953
▁floating	-4954
▁follicle	-4955
▁football	-4956
▁footwork	-4957
▁forearms	-4958
▁function	-4959
▁grabbing	-4960
▁hurrican	-4961
▁hydrated	-4962
▁includes	-4963
▁incorpor	-4964
▁industry	-4965
▁infected	-4966
▁instance	-4967
▁involves	-4968
▁isolated	-4969
▁kayaking	-4970
▁laughter	-4971
▁layering	-4972
▁magnetic	-4973
▁matching	-4974
▁measures	-4975
▁medicine	-4976
▁meridian	-4977
▁mistakes	-4978
▁modified	-4979
▁moisture	-4980
▁momentum	-4981
▁neighbor	-4982
▁occasion	-4983
▁original	-4984
▁parmesan	-4985
▁patterns	-4986
▁petunias	-4987
▁planning	-4988
▁pointers	-4989
▁possibly	-4990
▁pregnant	-4991
▁programs	-4992
▁protects	-4993
▁recovery	-4994
▁refining	-4995
▁requires	-4996
▁research	-4997
▁response	-4998
▁schedule	-4999
▁sections	-5000
▁shifting	-5001
▁shopping	-5002
▁sleeping	-5003
▁spraying	-5004
▁stencils	-5005
▁stickers	-5006
▁stirring	-5007
▁strainer	-5008
▁strategy	-5009
▁stretchy	-5010
▁stuffing	-5011
▁sunglass	-5012
▁superset	-5013
▁surgical	-5014
▁surround	-5015
▁tactical	-5016
▁teachers	-5017
▁thinking	-5018
▁thorough	-5019
▁thoughts	-5020
▁thumbing	-5021
▁treating	-5022
▁trophies	-5023
▁utensils	-5024
▁whenever	-5025
▁wherever	-5026
▁DeFreitas	-5027
▁Elevation	-5028
▁Gardening	-5029
▁Generally	-5030
▁Gutierrez	-5031
▁Koshinage	-5032
▁Krynytzky	-5033
▁Otherwise	-5034
▁Retriever	-5035
▁Wednesday	-5036
▁adaptable	-5037
▁administr	-5038
▁alternate	-5039
▁anchoring	-5040
▁automatic	-5041
▁balancing	-5042
▁bathrooms	-5043
▁buildings	-5044
▁calculate	-5045
▁cartridge	-5046
▁classroom	-5047
▁clockwise	-5048
▁concerned	-5049
▁conducive	-5050
▁confident	-5051
▁creatures	-5052
▁criticism	-5053
▁designate	-5054
▁detailing	-5055
▁electrons	-5056
▁everytime	-5057
▁exercises	-5058
▁expensive	-5059
▁experienc	-5060
▁explained	-5061
▁extremely	-5062
▁eyeshadow	-5063
▁fantastic	-5064
▁fastballs	-5065
▁fingertip	-5066
▁guarantee	-5067
▁hemostats	-5068
▁infielder	-5069
▁integrity	-5070
▁jayfrench	-5071
▁lettering	-5072
▁margarine	-5073
▁measuring	-5074
▁mechanics	-5075
▁nightmare	-5076
▁nutrients	-5077
▁organized	-5078
▁otherwise	-5079
▁outfitter	-5080
▁protected	-5081
▁questions	-5082
▁reactions	-5083
▁remaining	-5084
▁resisting	-5085
▁secondary	-5086
▁sensitive	-5087
▁somewhere	-5088
▁statement	-5089
▁stressing	-5090
▁supported	-5091
▁telephone	-5092
▁traumatic	-5093
▁varieties	-5094
▁Chameleons	-5095
▁Depression	-5096
▁Everything	-5097
▁Montbretia	-5098
▁Republican	-5099
▁Sacramento	-5100
▁Washington	-5101
▁absolutely	-5102
▁activities	-5103
▁alternator	-5104
▁appetizing	-5105
▁attraction	-5106
▁basketball	-5107
▁brainstorm	-5108
▁commitment	-5109
▁conditions	-5110
▁connection	-5111
▁continuing	-5112
▁contribute	-5113
▁determines	-5114
▁developing	-5115
▁difficulty	-5116
▁directions	-5117
▁discussion	-5118
▁displaying	-5119
▁fahrenheit	-5120
▁foreground	-5121
▁frequently	-5122
▁headlights	-5123
▁headstones	-5124
▁highlights	-5125
▁horizontal	-5126
▁impossible	-5127
▁innovation	-5128
▁instructor	-5129
▁interested	-5130
▁isolations	-5131
▁latissimus	-5132
▁malnourish	-5133
▁outfielder	-5134
▁photograph	-5135
▁physioball	-5136
▁positioned	-5137
▁preventive	-5138
▁previously	-5139
▁refreshing	-5140
▁resistance	-5141
▁scrambling	-5142
▁scratching	-5143
▁smoothness	-5144
▁straighten	-5145
▁successful	-5146
▁succession	-5147
▁transition	-5148
▁transplant	-5149
▁ultimately	-5150
▁vertically	-5151
▁veterinary	-5152
▁Appalachian	-5153
▁Expressions	-5154
▁Yokimunuchi	-5155
▁accessories	-5156
▁acupuncture	-5157
▁antibiotics	-5158
▁appropriate	-5159
▁concentrate	-5160
▁consecutive	-5161
▁constrictor	-5162
▁contributed	-5163
▁differently	-5164
▁efficiently	-5165
▁essentially	-5166
▁grandmother	-5167
▁inexpensive	-5168
▁lengthening	-5169
▁measurement	-5170
▁recommended	-5171
▁respiratory	-5172
▁thermograph	-5173
▁Practitioner	-5174
▁architecture	-5175
▁broadcasting	-5176
▁coordination	-5177
▁demonstrated	-5178
▁hummingbirds	-5179
▁mythological	-5180
▁photographer	-5181
▁thermometers	-5182
▁manufacturers	-5183
▁unfortunately	-5184
▁Improvisational	-5185
,"	-5186
-4	-5187
.5	-5188
/6	-5189
0,	-5190
0.	-5191
08	-5192
10	-5193
13	-5194
3'	-5195
32	-5196
39	-5197
50	-5198
75	-5199
-3	-5200
80	-5201
?"	-5202
AL	-5203
AR	-5204
CK	-5205
CY	-5206
DA	-5207
EG	-5208
EM	-5209
Er	-5210
GO	-5211
HI	-5212
IE	-5213
IK	-5214
IR	-5215
IW	-5216
MO	-5217
OL	-5218
Ok	-5219
RY	-5220
VE	-5221
YN	-5222
af	-5223
bi	-5224
br	-5225
bt	-5226
cl	-5227
dy	-5228
ea	-5229
ga	-5230
gs	-5231
ha	-5232
ho	-5233
lb	-5234
ma	-5235
mi	-5236
mm	-5237
nc	-5238
of	-5239
ox	-5240
oz	-5241
po	-5242
uk	-5243
uz	-5244
xy	-5245
▁,	-5246
▁-	-5247
▁.	-5248
▁i	-5249
▁â	-5250
"--	-5251
--'	-5252
--1	-5253
100	-5254
13.	-5255
15.	-5256
:00	-5257
HIM	-5258
How	-5259
ICK	-5260
IKE	-5261
IRK	-5262
MON	-5263
You	-5264
acc	-5265
ait	-5266
ann	-5267
asc	-5268
ata	-5269
atr	-5270
att	-5271
ayl	-5272
ban	-5273
bay	-5274
bbe	-5275
bul	-5276
bye	-5277
cer	-5278
cue	-5279
cut	-5280
den	-5281
eal	-5282
edy	-5283
eer	-5284
eme	-5285
erb	-5286
erg	-5287
ets	-5288
ett	-5289
fam	-5290
fol	-5291
gen	-5292
hab	-5293
hom	-5294
hot	-5295
icy	-5296
igr	-5297
ino	-5298
iph	-5299
OPE	-5300
adi	-5301
ahh	-5302
cup	-5303
did	-5304
eln	-5305
gyp	-5306
ida	-5307
ids	-5308
imb	-5309
isc	-5310
isf	-5311
ita	-5312
ito	-5313
izz	-5314
key	-5315
llo	-5316
low	-5317
lue	-5318
lut	-5319
man	-5320
mas	-5321
med	-5322
met	-5323
mir	-5324
mor	-5325
nat	-5326
nit	-5327
not	-5328
nts	-5329
nut	-5330
oad	-5331
oar	-5332
ona	-5333
onk	-5334
oot	-5335
orc	-5336
osh	-5337
oud	-5338
oys	-5339
pes	-5340
pit	-5341
rab	-5342
raw	-5343
rey	-5344
ror	-5345
ser	-5346
she	-5347
son	-5348
ste	-5349
sut	-5350
ted	-5351
ths	-5352
uls	-5353
unt	-5354
usp	-5355
uto	-5356
uxe	-5357
uzz	-5358
vee	-5359
vie	-5360
wan	-5361
win	-5362
yan	-5363
yer	-5364
yes	-5365
yle	-5366
▁26	-5367
▁48	-5368
▁75	-5369
▁9,	-5370
▁BI	-5371
▁En	-5372
▁II	-5373
▁Id	-5374
▁Me	-5375
▁Mo	-5376
▁Nu	-5377
▁Sy	-5378
▁Te	-5379
▁Wy	-5380
▁Ye	-5381
▁ge	-5382
▁gh	-5383
▁jo	-5384
▁ot	-5385
▁py	-5386
▁ru	-5387
▁ta	-5388
▁ur	-5389
086,	-5390
39-4	-5391
ANDA	-5392
ANVE	-5393
Aahh	-5394
Okay	-5395
aced	-5396
acic	-5397
acto	-5398
adic	-5399
AVI	-5400
azz	-5401
oda	-5402
uly	-5403
ybe	-5404
AVID	-5405
aine	-5406
alla	-5407
alms	-5408
alog	-5409
alue	-5410
amed	-5411
amic	-5412
ampa	-5413
anin	-5414
anta	-5415
aper	-5416
arly	-5417
arth	-5418
atar	-5419
atec	-5420
atio	-5421
atme	-5422
aver	-5423
avin	-5424
back	-5425
bank	-5426
brid	-5427
call	-5428
cent	-5429
cept	-5430
coot	-5431
dots	-5432
draw	-5433
dued	-5434
elia	-5435
ells	-5436
ened	-5437
eral	-5438
erle	-5439
erly	-5440
eros	-5441
erse	-5442
estr	-5443
etly	-5444
eves	-5445
fant	-5446
ffod	-5447
flip	-5448
ging	-5449
gypt	-5450
hero	-5451
iaea	-5452
iatr	-5453
ican	-5454
icos	-5455
idle	-5456
idue	-5457
iere	-5458
igan	-5459
inct	-5460
indr	-5461
inic	-5462
inis	-5463
inse	-5464
ints	-5465
ipts	-5466
isal	-5467
isor	-5468
itan	-5469
ites	-5470
itts	-5471
ived	-5472
izer	-5473
lded	-5474
leen	-5475
lely	-5476
ller	-5477
llow	-5478
ndon	-5479
neum	-5480
nity	-5481
odle	-5482
olor	-5483
omis	-5484
omly	-5485
onde	-5486
oned	-5487
ontr	-5488
ontz	-5489
ooie	-5490
oove	-5491
orsh	-5492
oser	-5493
otan	-5494
oval	-5495
owel	-5496
pace	-5497
pend	-5498
quee	-5499
Bur	-5500
Eur	-5501
aur	-5502
col	-5503
eur	-5504
ola	-5505
urt	-5506
▁Ma	-5507
Drop	-5508
abil	-5509
amst	-5510
arol	-5511
bles	-5512
book	-5513
ceed	-5514
cell	-5515
cial	-5516
ercl	-5517
heal	-5518
ibal	-5519
icol	-5520
igel	-5521
ilip	-5522
ilst	-5523
inyl	-5524
iply	-5525
kini	-5526
lamm	-5527
merg	-5528
nize	-5529
olus	-5530
opes	-5531
rain	-5532
rant	-5533
real	-5534
ream	-5535
rend	-5536
rets	-5537
sles	-5538
stac	-5539
sure	-5540
tent	-5541
that	-5542
tion	-5543
udap	-5544
uide	-5545
ulge	-5546
ulum	-5547
umbs	-5548
unks	-5549
uren	-5550
usty	-5551
veal	-5552
vern	-5553
vide	-5554
vill	-5555
weet	-5556
will	-5557
▁32.	-5558
▁90%	-5559
▁Aid	-5560
▁Big	-5561
▁Cro	-5562
▁Dra	-5563
▁Elb	-5564
▁Eng	-5565
▁Euc	-5566
▁GRA	-5567
▁Hit	-5568
▁Ind	-5569
▁Kim	-5570
▁Los	-5571
▁Mel	-5572
▁Mod	-5573
▁Neg	-5574
▁Nor	-5575
▁Pen	-5576
▁ROS	-5577
▁Sec	-5578
▁Sed	-5579
▁Tom	-5580
▁Tor	-5581
▁Two	-5582
▁Wal	-5583
▁Wel	-5584
▁Why	-5585
▁Wil	-5586
▁Wor	-5587
▁Yep	-5588
▁Yol	-5589
▁agg	-5590
▁aid	-5591
▁amp	-5592
▁anc	-5593
▁ans	-5594
▁anx	-5595
▁arg	-5596
▁ath	-5597
▁bod	-5598
▁bou	-5599
HER	-5600
dge	-5601
lap	-5602
rug	-5603
▁8.	-5604
▁Ba	-5605
RIEG	-5606
abre	-5607
acqu	-5608
apes	-5609
five	-5610
imul	-5611
onge	-5612
orge	-5613
osqu	-5614
quet	-5615
seas	-5616
vive	-5617
▁132	-5618
▁Bra	-5619
▁Dav	-5620
▁Fam	-5621
▁Pro	-5622
▁Tap	-5623
▁cat	-5624
▁dan	-5625
▁ded	-5626
▁dev	-5627
▁dun	-5628
▁eld	-5629
▁emb	-5630
▁fan	-5631
▁fer	-5632
▁fuz	-5633
▁gin	-5634
▁har	-5635
▁haz	-5636
▁hol	-5637
▁hon	-5638
▁hyp	-5639
▁itâ	-5640
▁jam	-5641
▁jar	-5642
▁jaw	-5643
▁jun	-5644
▁kit	-5645
▁lic	-5646
▁lub	-5647
▁max	-5648
▁mel	-5649
▁mem	-5650
▁mic	-5651
▁ooh	-5652
▁pel	-5653
▁pet	-5654
▁piz	-5655
▁ple	-5656
▁pun	-5657
▁que	-5658
▁ran	-5659
▁rap	-5660
▁reb	-5661
▁rev	-5662
▁rot	-5663
▁row	-5664
▁sam	-5665
▁sex	-5666
▁sil	-5667
▁sky	-5668
▁soc	-5669
▁spa	-5670
▁spo	-5671
▁tox	-5672
▁toy	-5673
▁tuc	-5674
▁tug	-5675
▁tut	-5676
▁unt	-5677
▁ups	-5678
▁vap	-5679
▁vul	-5680
▁wat	-5681
▁web	-5682
▁wes	-5683
▁wig	-5684
▁wip	-5685
939-4	-5686
LLHIM	-5687
MONIE	-5688
OPHER	-5689
aches	-5690
aders	-5691
adows	-5692
ailed	-5693
allet	-5694
allow	-5695
anion	-5696
antar	-5697
anted	-5698
antly	-5699
eum	-5700
rum	-5701
▁1-	-5702
▁CO	-5703
▁MP	-5704
▁Ob	-5705
have	-5706
mile	-5707
rove	-5708
word	-5709
▁Dou	-5710
▁Ham	-5711
▁Hem	-5712
▁Hor	-5713
▁Int	-5714
▁Mid	-5715
▁Tig	-5716
▁enr	-5717
▁tea	-5718
▁tee	-5719
▁tri	-5720
adine	-5721
annon	-5722
anyon	-5723
aping	-5724
arter	-5725
artle	-5726
atile	-5727
atori	-5728
atson	-5729
attan	-5730
atula	-5731
ausea	-5732
aying	-5733
bsess	-5734
bulbs	-5735
burgh	-5736
chers	-5737
chest	-5738
cials	-5739
coons	-5740
dling	-5741
elled	-5742
emies	-5743
ended	-5744
eness	-5745
entle	-5746
eping	-5747
ereal	-5748
esson	-5749
etics	-5750
eting	-5751
exist	-5752
field	-5753
geles	-5754
ggier	-5755
hones	-5756
house	-5757
hrase	-5758
icate	-5759
ichey	-5760
ickle	-5761
icole	-5762
iesel	-5763
igued	-5764
iking	-5765
iment	-5766
inage	-5767
inion	-5768
inkle	-5769
inson	-5770
ipant	-5771
ipple	-5772
isely	-5773
ished	-5774
isode	-5775
isted	-5776
itary	-5777
itors	-5778
itten	-5779
ively	-5780
letic	-5781
lized	-5782
mouth	-5783
niest	-5784
ocado	-5785
ocery	-5786
olled	-5787
omach	-5788
oogle	-5789
opard	-5790
opter	-5791
oquis	-5792
orida	-5793
orses	-5794
oshop	-5795
otely	-5796
otted	-5797
owing	-5798
paint	-5799
Coy	-5800
The	-5801
who	-5802
▁17	-5803
▁DD	-5804
▁DR	-5805
▁Da	-5806
anda	-5807
ands	-5808
arew	-5809
aste	-5810
asty	-5811
fire	-5812
iley	-5813
last	-5814
okay	-5815
tile	-5816
uate	-5817
ware	-5818
well	-5819
▁375	-5820
▁Hob	-5821
▁Ray	-5822
▁Sty	-5823
▁enc	-5824
astes	-5825
atles	-5826
erate	-5827
iffin	-5828
itate	-5829
luish	-5830
reate	-5831
reath	-5832
retch	-5833
riger	-5834
ropol	-5835
shall	-5836
smith	-5837
start	-5838
stone	-5839
store	-5840
thern	-5841
three	-5842
treat	-5843
ucing	-5844
upped	-5845
uster	-5846
vated	-5847
verty	-5848
vical	-5849
which	-5850
words	-5851
▁1980	-5852
▁Alas	-5853
▁Astr	-5854
▁Bear	-5855
▁Blue	-5856
▁CLAN	-5857
▁Care	-5858
▁Cons	-5859
▁Cost	-5860
▁Dark	-5861
▁East	-5862
▁Eric	-5863
▁Fall	-5864
▁Fing	-5865
▁Gill	-5866
▁Grey	-5867
▁Head	-5868
▁Hero	-5869
▁Hers	-5870
▁Hill	-5871
▁July	-5872
▁LOPE	-5873
▁Lake	-5874
▁Life	-5875
▁Long	-5876
▁Mart	-5877
▁Moms	-5878
▁More	-5879
▁Move	-5880
▁Over	-5881
▁Parr	-5882
▁ROSE	-5883
▁Rele	-5884
▁Remo	-5885
▁Reno	-5886
▁Rite	-5887
▁Rock	-5888
▁Roll	-5889
▁Ryan	-5890
▁Sean	-5891
▁Slow	-5892
▁Toes	-5893
▁Very	-5894
▁West	-5895
▁Will	-5896
▁Wrec	-5897
▁Yeah	-5898
▁Youâ	-5899
aky	-5900
▁Em	-5901
▁JB	-5902
▁Ko	-5903
▁ib	-5904
4.99	-5905
aker	-5906
cage	-5907
ften	-5908
izon	-5909
otta	-5910
oxys	-5911
ries	-5912
vage	-5913
▁350	-5914
▁Gay	-5915
▁Red	-5916
▁Ros	-5917
▁Run	-5918
4.99.	-5919
aries	-5920
asses	-5921
axing	-5922
getic	-5923
igned	-5924
lable	-5925
okesp	-5926
reens	-5927
water	-5928
▁Bald	-5929
▁Each	-5930
▁Emmy	-5931
▁Pink	-5932
▁Plan	-5933
▁Rest	-5934
▁Spin	-5935
▁VICK	-5936
▁abro	-5937
▁aces	-5938
▁acid	-5939
▁acqu	-5940
▁ador	-5941
▁alto	-5942
▁ampl	-5943
▁anch	-5944
▁anod	-5945
▁aver	-5946
▁bait	-5947
▁bean	-5948
▁beat	-5949
▁bloc	-5950
▁bolt	-5951
▁bone	-5952
▁bout	-5953
▁bows	-5954
▁burn	-5955
▁calm	-5956
▁cane	-5957
▁cape	-5958
▁carn	-5959
▁cash	-5960
▁cert	-5961
▁chec	-5962
▁city	-5963
▁clue	-5964
▁code	-5965
▁conj	-5966
▁cout	-5967
▁cuff	-5968
▁curb	-5969
▁dent	-5970
▁depl	-5971
▁dess	-5972
▁dial	-5973
▁dice	-5974
▁dust	-5975
▁emot	-5976
▁emph	-5977
▁exac	-5978
▁fade	-5979
▁fake	-5980
▁fanc	-5981
▁feta	-5982
▁flag	-5983
▁flew	-5984
▁flip	-5985
▁fort	-5986
▁gaps	-5987
▁gave	-5988
▁germ	-5989
▁girl	-5990
▁glut	-5991
▁goat	-5992
▁goop	-5993
▁gour	-5994
▁gren	-5995
▁guts	-5996
▁hats	-5997
▁hems	-5998
▁hilt	-5999
Tape	-6000
ague	-6001
earh	-6002
lica	-6003
made	-6004
nope	-6005
ogan	-6006
oors	-6007
show	-6008
▁Cho	-6009
▁DIW	-6010
▁Rag	-6011
ators	-6012
icial	-6013
jects	-6014
▁Abbe	-6015
▁Fold	-6016
▁Goth	-6017
▁Hike	-6018
▁Kash	-6019
▁Kind	-6020
▁Kush	-6021
▁Lear	-6022
▁Lift	-6023
▁Pool	-6024
▁bats	-6025
▁bike	-6026
▁bond	-6027
▁corn	-6028
▁flux	-6029
▁font	-6030
▁hadn	-6031
▁hind	-6032
▁hiya	-6033
▁hump	-6034
▁hydr	-6035
▁intr	-6036
▁intu	-6037
▁item	-6038
▁jack	-6039
▁jamm	-6040
▁joke	-6041
▁kept	-6042
▁kett	-6043
▁kiss	-6044
▁knew	-6045
▁knob	-6046
▁lapt	-6047
▁lats	-6048
▁lens	-6049
▁lets	-6050
▁lett	-6051
▁leve	-6052
▁lies	-6053
▁lung	-6054
▁mail	-6055
▁mash	-6056
▁mayo	-6057
▁meat	-6058
▁mega	-6059
▁mens	-6060
▁mile	-6061
▁mite	-6062
▁mood	-6063
▁myst	-6064
▁naph	-6065
▁news	-6066
▁nine	-6067
▁nons	-6068
▁numb	-6069
▁oily	-6070
▁oper	-6071
▁oven	-6072
▁pace	-6073
▁pant	-6074
▁park	-6075
▁path	-6076
▁peak	-6077
▁peat	-6078
▁peel	-6079
▁pens	-6080
▁pike	-6081
▁poke	-6082
▁prom	-6083
▁prop	-6084
▁pros	-6085
▁pure	-6086
▁puss	-6087
▁quit	-6088
▁rail	-6089
▁rand	-6090
▁rate	-6091
▁reac	-6092
▁reel	-6093
▁rein	-6094
▁rely	-6095
▁rend	-6096
▁ride	-6097
▁rins	-6098
▁rise	-6099
▁29	-6100
▁83	-6101
▁85	-6102
▁87	-6103
hood	-6104
nsyl	-6105
onia	-6106
uble	-6107
▁Aug	-6108
▁Eug	-6109
▁HAR	-6110
▁fud	-6111
▁pud	-6112
▁sud	-6113
adier	-6114
asize	-6115
dosed	-6116
opean	-6117
ritor	-6118
unchy	-6119
▁83.9	-6120
▁872-	-6121
▁Food	-6122
▁Leta	-6123
▁Norm	-6124
▁Plug	-6125
▁born	-6126
▁cats	-6127
▁desk	-6128
▁gift	-6129
▁jsut	-6130
▁rash	-6131
▁rout	-6132
▁rows	-6133
▁rush	-6134
▁sake	-6135
▁scan	-6136
▁seas	-6137
▁seem	-6138
▁sees	-6139
▁send	-6140
▁slim	-6141
▁sold	-6142
▁solo	-6143
▁span	-6144
▁spor	-6145
▁star	-6146
▁suck	-6147
▁sund	-6148
▁tack	-6149
▁tale	-6150
▁tech	-6151
▁temp	-6152
▁tens	-6153
▁text	-6154
▁thus	-6155
▁till	-6156
▁tone	-6157
▁tons	-6158
▁tour	-6159
▁toys	-6160
▁twos	-6161
▁vase	-6162
▁vice	-6163
▁vote	-6164
▁warr	-6165
▁weed	-6166
▁wich	-6167
▁wins	-6168
▁wont	-6169
▁wool	-6170
▁worm	-6171
▁wort	-6172
ANVEEN	-6173
OLANDA	-6174
RIEGER	-6175
achers	-6176
acular	-6177
agious	-6178
ainous	-6179
atchet	-6180
ateurs	-6181
athers	-6182
athery	-6183
aurant	-6184
bluish	-6185
called	-6186
colors	-6187
coming	-6188
cooter	-6189
drator	-6190
edness	-6191
elance	-6192
eptile	-6193
epting	-6194
erbate	-6195
ercing	-6196
estroy	-6197
etrate	-6198
ffodil	-6199
▁34	-6200
Caut	-6201
ango	-6202
coon	-6203
lier	-6204
rier	-6205
roid	-6206
what	-6207
▁300	-6208
▁aug	-6209
▁mug	-6210
ancis	-6211
ernet	-6212
icted	-6213
ifier	-6214
itual	-6215
nails	-6216
nosed	-6217
place	-6218
plate	-6219
▁Chop	-6220
▁Fork	-6221
▁Kiss	-6222
▁Lanc	-6223
▁Stop	-6224
▁bank	-6225
▁boss	-6226
▁curv	-6227
▁darn	-6228
▁deck	-6229
▁deco	-6230
▁gums	-6231
▁hoop	-6232
▁peek	-6233
▁pits	-6234
▁snip	-6235
▁sunk	-6236
▁unpl	-6237
TOPHER	-6238
gerous	-6239
iately	-6240
icular	-6241
idence	-6242
idents	-6243
iented	-6244
ifying	-6245
ilizes	-6246
illess	-6247
imited	-6248
infect	-6249
ionate	-6250
isfied	-6251
istics	-6252
istles	-6253
itions	-6254
ivated	-6255
ivered	-6256
lutter	-6257
morrow	-6258
obably	-6259
ognize	-6260
olated	-6261
ometry	-6262
ongate	-6263
onnect	-6264
ording	-6265
ostats	-6266
packed	-6267
phones	-6268
ptimal	-6269
rances	-6270
readed	-6271
really	-6272
reditt	-6273
reesia	-6274
ressor	-6275
ricate	-6276
ridias	-6277
stance	-6278
stract	-6279
ulated	-6280
ulking	-6281
ulsive	-6282
urance	-6283
urated	-6284
urized	-6285
uscrip	-6286
velope	-6287
verted	-6288
vision	-6289
▁1.15.	-6290
▁ALLEN	-6291
▁ALLYN	-6292
▁Align	-6293
▁Asian	-6294
▁Award	-6295
▁Bring	-6296
▁Brush	-6297
▁Calla	-6298
▁Carol	-6299
LLU	-6300
aho	-6301
▁6.	-6302
vian	-6303
ysis	-6304
LLURA	-6305
anged	-6306
iator	-6307
imary	-6308
kerch	-6309
phant	-6310
▁Ebay	-6311
▁Feel	-6312
▁Merm	-6313
▁ages	-6314
▁chew	-6315
▁damp	-6316
▁hike	-6317
▁horn	-6318
▁lime	-6319
▁lump	-6320
▁ramp	-6321
▁samp	-6322
▁verb	-6323
angish	-6324
igator	-6325
ourage	-6326
tilian	-6327
▁Allen	-6328
▁Catar	-6329
▁Check	-6330
▁Could	-6331
▁Dough	-6332
▁Enjoy	-6333
▁Erica	-6334
▁GRAHA	-6335
▁Going	-6336
▁Gorge	-6337
▁Great	-6338
▁Hanks	-6339
▁Homeb	-6340
▁Idaho	-6341
▁Italy	-6342
▁James	-6343
▁Knife	-6344
▁Leave	-6345
▁Liatr	-6346
▁Marin	-6347
▁Mater	-6348
▁Neven	-6349
▁Paint	-6350
▁Pinch	-6351
▁Salon	-6352
▁Smith	-6353
▁Stick	-6354
▁Style	-6355
▁Techn	-6356
▁Twist	-6357
▁Virab	-6358
▁Wings	-6359
▁aband	-6360
▁abuse	-6361
▁alarm	-6362
▁appra	-6363
▁arced	-6364
▁argue	-6365
▁aside	-6366
▁barbs	-6367
▁based	-6368
▁bases	-6369
▁baths	-6370
▁beach	-6371
▁beads	-6372
▁beans	-6373
▁began	-6374
▁bench	-6375
▁bleed	-6376
▁blues	-6377
▁boils	-6378
▁booth	-6379
▁bounc	-6380
▁bound	-6381
▁broom	-6382
▁bumpy	-6383
▁busty	-6384
▁canes	-6385
▁carbs	-6386
▁cells	-6387
▁chase	-6388
▁cheap	-6389
▁clays	-6390
▁click	-6391
▁clump	-6392
▁coach	-6393
▁coars	-6394
▁coils	-6395
▁conge	-6396
▁corms	-6397
▁crest	-6398
▁crowd	-6399
many	-6400
mene	-6401
▁Adr	-6402
▁Toe	-6403
erval	-6404
▁Carm	-6405
▁Frid	-6406
▁Miam	-6407
▁Work	-6408
▁flax	-6409
▁loan	-6410
▁polk	-6411
▁pump	-6412
season	-6413
ussing	-6414
▁Chevy	-6415
▁Doesn	-6416
▁Laura	-6417
▁Miami	-6418
▁agent	-6419
▁agree	-6420
▁boxes	-6421
▁chips	-6422
▁clasp	-6423
▁darth	-6424
▁dealt	-6425
▁depth	-6426
▁desce	-6427
▁dices	-6428
▁disor	-6429
▁domin	-6430
▁doubt	-6431
▁draws	-6432
▁dries	-6433
▁drops	-6434
▁dryer	-6435
▁eager	-6436
▁eagle	-6437
▁edged	-6438
▁epiph	-6439
▁fatal	-6440
▁final	-6441
▁fives	-6442
▁fixed	-6443
▁flair	-6444
▁flies	-6445
▁flour	-6446
▁folds	-6447
▁foods	-6448
▁forms	-6449
▁fruit	-6450
▁fulls	-6451
▁fuzzy	-6452
▁games	-6453
▁glare	-6454
▁goign	-6455
▁grain	-6456
▁grams	-6457
▁grips	-6458
▁grout	-6459
▁grove	-6460
▁grows	-6461
▁hairs	-6462
▁haste	-6463
▁heads	-6464
▁heard	-6465
▁hitch	-6466
▁hower	-6467
▁hyper	-6468
▁ident	-6469
▁image	-6470
▁incid	-6471
▁ingre	-6472
▁input	-6473
▁intim	-6474
▁jacks	-6475
▁jokes	-6476
▁kings	-6477
▁knock	-6478
▁latch	-6479
▁latit	-6480
▁leads	-6481
▁leans	-6482
▁lever	-6483
▁lifts	-6484
▁liner	-6485
▁lives	-6486
▁loads	-6487
▁lungs	-6488
▁maker	-6489
▁marks	-6490
▁mayor	-6491
▁meals	-6492
▁model	-6493
▁molds	-6494
▁mural	-6495
▁nails	-6496
▁named	-6497
▁nosed	-6498
▁noses	-6499
▁9.	-6500
iety	-6501
▁1/3	-6502
▁1/4	-6503
▁10,	-6504
▁MAN	-6505
adoes	-6506
cross	-6507
dered	-6508
▁Cert	-6509
▁Fres	-6510
▁Note	-6511
▁Rosa	-6512
▁Salt	-6513
▁Serv	-6514
▁bags	-6515
▁bury	-6516
▁cues	-6517
▁socc	-6518
▁thru	-6519
▁tilt	-6520
▁wait	-6521
ockton	-6522
resent	-6523
▁Cross	-6524
▁MANGO	-6525
▁Reach	-6526
▁arena	-6527
▁china	-6528
▁expel	-6529
▁glues	-6530
▁minds	-6531
▁monot	-6532
▁multi	-6533
▁nutty	-6534
▁occur	-6535
▁older	-6536
▁ornam	-6537
▁ovals	-6538
▁panel	-6539
▁peers	-6540
▁phase	-6541
▁preen	-6542
▁prior	-6543
▁prove	-6544
▁pulls	-6545
▁quiet	-6546
▁recap	-6547
▁rehab	-6548
▁rinse	-6549
▁rises	-6550
▁river	-6551
▁ropes	-6552
▁rural	-6553
▁sabre	-6554
▁safer	-6555
▁salad	-6556
▁salts	-6557
▁scale	-6558
▁scaly	-6559
▁scary	-6560
▁scoop	-6561
▁setup	-6562
▁shelf	-6563
▁shine	-6564
▁shiny	-6565
▁shown	-6566
▁showy	-6567
▁shrug	-6568
▁sidew	-6569
▁sixes	-6570
▁skill	-6571
▁sleek	-6572
▁slice	-6573
▁slows	-6574
▁smush	-6575
▁snell	-6576
▁snout	-6577
▁sound	-6578
▁spack	-6579
▁spins	-6580
▁spons	-6581
▁spook	-6582
▁stack	-6583
▁stake	-6584
▁stars	-6585
▁stays	-6586
▁stiff	-6587
▁strap	-6588
▁subur	-6589
▁sucks	-6590
▁swamp	-6591
▁talks	-6592
▁teens	-6593
▁thank	-6594
▁theyâ	-6595
▁threw	-6596
▁tired	-6597
▁torso	-6598
▁trade	-6599
▁6"	-6600
tech	-6601
▁10-	-6602
▁20%	-6603
▁Add	-6604
▁Adm	-6605
▁ili	-6606
point	-6607
ptoms	-6608
▁Brod	-6609
▁Drop	-6610
▁Play	-6611
▁beds	-6612
▁rubs	-6613
▁yank	-6614
handed	-6615
▁10-15	-6616
▁Birds	-6617
▁Brill	-6618
▁Bruce	-6619
▁Devel	-6620
▁Diwan	-6621
▁Place	-6622
▁candy	-6623
▁diced	-6624
▁iliac	-6625
▁items	-6626
▁penny	-6627
▁reads	-6628
▁tanks	-6629
▁tasty	-6630
▁trunk	-6631
▁turns	-6632
▁turnt	-6633
▁unfor	-6634
▁unity	-6635
▁value	-6636
▁veget	-6637
▁velve	-6638
▁versa	-6639
▁visit	-6640
▁vital	-6641
▁weeks	-6642
▁weigh	-6643
▁whats	-6644
▁windy	-6645
▁witch	-6646
▁worse	-6647
▁worst	-6648
▁wrote	-6649
▁youth	-6650
actable	-6651
acteria	-6652
adiolus	-6653
agement	-6654
alified	-6655
antages	-6656
aration	-6657
ascades	-6658
astical	-6659
ategies	-6660
autiful	-6661
autions	-6662
cellent	-6663
chestra	-6664
ections	-6665
eptable	-6666
erclock	-6667
ernails	-6668
ervancy	-6669
etitive	-6670
flowers	-6671
forming	-6672
gyptian	-6673
hillips	-6674
icipate	-6675
ificant	-6676
ificate	-6677
inative	-6678
inching	-6679
inehead	-6680
isorder	-6681
istered	-6682
itarian	-6683
itivity	-6684
ization	-6685
mington	-6686
naments	-6687
nerable	-6688
ockings	-6689
ologist	-6690
ologize	-6691
ootwork	-6692
ouraged	-6693
packing	-6694
scaping	-6695
strings	-6696
taining	-6697
tenance	-6698
tertime	-6699
deg	-6700
▁50	-6701
EMEN	-6702
urai	-6703
yman	-6704
▁20'	-6705
▁30'	-6706
▁DHA	-6707
▁MOS	-6708
▁cyl	-6709
arins	-6710
cloth	-6711
ggies	-6712
hiker	-6713
lexig	-6714
ybean	-6715
▁100,	-6716
▁Arts	-6717
▁Jean	-6718
▁Skin	-6719
▁anti	-6720
▁jerk	-6721
degree	-6722
lexion	-6723
porate	-6724
porous	-6725
reetly	-6726
uisher	-6727
uising	-6728
▁83.95	-6729
▁Canna	-6730
▁Comes	-6731
▁Cover	-6732
▁Fudge	-6733
▁Knead	-6734
▁McCoy	-6735
▁Since	-6736
▁awful	-6737
▁batty	-6738
▁bumps	-6739
▁coins	-6740
▁funky	-6741
▁greys	-6742
▁human	-6743
▁jumps	-6744
▁lined	-6745
▁mache	-6746
▁nomin	-6747
▁pumps	-6748
▁rarer	-6749
▁trees	-6750
▁wanna	-6751
ulating	-6752
unction	-6753
ustrate	-6754
ventory	-6755
warding	-6756
▁Amelia	-6757
▁Beauty	-6758
▁CLEMEN	-6759
▁Chevro	-6760
▁Corpor	-6761
▁Double	-6762
▁Exacto	-6763
▁Family	-6764
▁GRAHAM	-6765
▁Google	-6766
▁Having	-6767
▁Hobson	-6768
▁Indian	-6769
▁Island	-6770
▁Laying	-6771
▁Lesson	-6772
▁Lining	-6773
▁Living	-6774
▁Makeup	-6775
▁Mooney	-6776
▁Natori	-6777
▁Nicole	-6778
▁Number	-6779
▁Obsess	-6780
▁Origin	-6781
▁Parent	-6782
▁Remove	-6783
▁Richey	-6784
▁Robert	-6785
▁Sedona	-6786
▁Slowly	-6787
▁Supply	-6788
▁Tastes	-6789
▁Thanks	-6790
▁Things	-6791
▁Torres	-6792
▁Watson	-6793
▁Wyvern	-6794
▁acting	-6795
▁advise	-6796
▁agrees	-6797
▁allerg	-6798
▁amazed	-6799
ERS	-6800
▁70	-6801
1.99	-6802
ukon	-6803
▁2-3	-6804
▁90-	-6805
▁BEN	-6806
erole	-6807
lined	-6808
ramid	-6809
▁Feet	-6810
▁Kyle	-6811
▁Syst	-6812
▁busy	-6813
▁lazy	-6814
ainted	-6815
boards	-6816
chette	-6817
engart	-6818
people	-6819
▁Depot	-6820
▁Tiger	-6821
▁Yukon	-6822
▁drape	-6823
▁milky	-6824
▁names	-6825
▁north	-6826
▁tying	-6827
▁wider	-6828
▁young	-6829
iscover	-6830
osquito	-6831
rupting	-6832
udapest	-6833
▁Adding	-6834
▁Anchor	-6835
▁Anyway	-6836
▁answer	-6837
▁anyone	-6838
▁arched	-6839
▁armpit	-6840
▁awards	-6841
▁babies	-6842
▁ballet	-6843
▁bathes	-6844
▁batter	-6845
▁behold	-6846
▁biceps	-6847
▁biting	-6848
▁blocky	-6849
▁blonde	-6850
▁blower	-6851
▁bother	-6852
▁breaks	-6853
▁bridge	-6854
▁brooms	-6855
▁browns	-6856
▁bucket	-6857
▁builds	-6858
▁burned	-6859
▁burpie	-6860
▁canape	-6861
▁cancer	-6862
▁caused	-6863
▁cement	-6864
▁chairs	-6865
▁chased	-6866
▁choppy	-6867
▁clinic	-6868
▁combin	-6869
▁commer	-6870
▁corral	-6871
▁crafts	-6872
▁crawly	-6873
▁crease	-6874
▁crimes	-6875
▁crumbs	-6876
▁cupped	-6877
▁curdle	-6878
▁curric	-6879
▁curves	-6880
▁dampen	-6881
▁dashes	-6882
▁deadly	-6883
▁deepen	-6884
▁defend	-6885
▁deploy	-6886
▁depots	-6887
▁dinner	-6888
▁doesnâ	-6889
▁dollop	-6890
▁drills	-6891
▁drying	-6892
▁eighth	-6893
▁eights	-6894
▁engine	-6895
▁enrich	-6896
▁ensure	-6897
▁equate	-6898
▁estate	-6899
ngue	-6900
▁28,	-6901
1,000	-6902
alama	-6903
ledge	-6904
print	-6905
vania	-6906
▁80%,	-6907
▁gaze	-6908
atmeal	-6909
erenov	-6910
ffeine	-6911
idates	-6912
roduce	-6913
▁100%,	-6914
▁Swiss	-6915
▁Terry	-6916
▁beeps	-6917
▁berry	-6918
▁bikes	-6919
▁racks	-6920
▁tones	-6921
ademark	-6922
aringly	-6923
feather	-6924
inology	-6925
ittedly	-6926
ollable	-6927
▁10,000	-6928
▁20,000	-6929
▁Kalama	-6930
▁Shimmy	-6931
▁Unless	-6932
▁cherry	-6933
▁curled	-6934
▁delays	-6935
▁driven	-6936
▁evenly	-6937
▁exacto	-6938
▁expect	-6939
▁exting	-6940
▁eyelid	-6941
▁facial	-6942
▁fallen	-6943
▁father	-6944
▁fellow	-6945
▁filled	-6946
▁fitted	-6947
▁flames	-6948
▁flexor	-6949
▁flight	-6950
▁floors	-6951
▁fluxed	-6952
▁folded	-6953
▁footed	-6954
▁forele	-6955
▁forget	-6956
▁format	-6957
▁fridge	-6958
▁fuller	-6959
▁funnel	-6960
▁garage	-6961
▁garden	-6962
▁gather	-6963
▁golden	-6964
▁gotten	-6965
▁grades	-6966
▁grease	-6967
▁gunked	-6968
▁haired	-6969
▁hazeln	-6970
▁headed	-6971
▁healer	-6972
▁hopper	-6973
▁howler	-6974
▁hurdle	-6975
▁hybrid	-6976
▁images	-6977
▁income	-6978
▁induce	-6979
▁ingest	-6980
▁inoper	-6981
▁insure	-6982
▁intake	-6983
▁jammed	-6984
▁jingle	-6985
▁judges	-6986
▁juices	-6987
▁kinder	-6988
▁laughs	-6989
▁layers	-6990
▁layout	-6991
▁leader	-6992
▁lights	-6993
▁living	-6994
▁loaves	-6995
▁locker	-6996
▁looked	-6997
▁loving	-6998
▁lowest	-6999
66,	-7000
hole	-7001
burst	-7002
▁Walk	-7003
▁rims	-7004
billed	-7005
verado	-7006
▁1966,	-7007
▁Chris	-7008
▁Creme	-7009
▁Lowes	-7010
▁curls	-7011
▁dirty	-7012
▁dulls	-7013
▁fryer	-7014
▁retie	-7015
▁scrub	-7016
▁shops	-7017
▁tubes	-7018
▁volum	-7019
▁Chosen	-7020
▁assess	-7021
▁firmly	-7022
▁ladder	-7023
▁losing	-7024
▁luster	-7025
▁mainly	-7026
▁marble	-7027
▁marked	-7028
▁menthe	-7029
▁merits	-7030
▁meshes	-7031
▁messed	-7032
▁microp	-7033
▁missed	-7034
▁misted	-7035
▁months	-7036
▁mopped	-7037
▁naphta	-7038
▁nearly	-7039
▁occurs	-7040
▁onions	-7041
▁opened	-7042
▁opener	-7043
▁oppose	-7044
▁papers	-7045
▁parent	-7046
▁parker	-7047
▁parrot	-7048
▁pastel	-7049
▁patent	-7050
▁phyllo	-7051
▁picked	-7052
▁pinkie	-7053
▁plaque	-7054
▁plates	-7055
▁played	-7056
▁porter	-7057
▁prenat	-7058
▁presid	-7059
▁priced	-7060
▁primer	-7061
▁prints	-7062
▁pupils	-7063
▁pursue	-7064
▁pushes	-7065
▁rafter	-7066
▁rashes	-7067
▁rating	-7068
▁reader	-7069
▁region	-7070
▁rememb	-7071
▁resist	-7072
▁reveal	-7073
▁review	-7074
▁rinses	-7075
▁rolled	-7076
▁rounds	-7077
▁rugged	-7078
▁rulers	-7079
▁runway	-7080
▁sander	-7081
▁saying	-7082
▁scents	-7083
▁scores	-7084
▁scrape	-7085
▁seamst	-7086
▁senses	-7087
▁serves	-7088
▁sewing	-7089
▁sheets	-7090
▁sizing	-7091
▁skinny	-7092
▁slower	-7093
▁smears	-7094
▁smoker	-7095
▁sneaky	-7096
▁soaked	-7097
▁soccer	-7098
▁soiled	-7099
▁6-8	-7100
▁MSO	-7101
▁MSR	-7102
heres	-7103
▁Manh	-7104
▁Meta	-7105
▁junk	-7106
▁menu	-7107
▁roof	-7108
▁warp	-7109
▁Added	-7110
▁Bobby	-7111
▁Climb	-7112
▁Eagle	-7113
▁Incas	-7114
▁Knees	-7115
▁Major	-7116
▁Renov	-7117
▁Scope	-7118
▁Scott	-7119
▁baked	-7120
▁brief	-7121
▁giant	-7122
▁groan	-7123
▁groom	-7124
▁labor	-7125
▁olive	-7126
▁proof	-7127
▁pussy	-7128
▁syrup	-7129
ancisco	-7130
erosene	-7131
reciate	-7132
▁Barber	-7133
▁Friday	-7134
▁Ismene	-7135
▁LarsEr	-7136
▁Vanish	-7137
▁awhile	-7138
▁beauty	-7139
▁bubble	-7140
▁caught	-7141
▁forced	-7142
▁fusing	-7143
▁inputs	-7144
▁kettle	-7145
▁olives	-7146
▁phrase	-7147
▁quench	-7148
▁return	-7149
▁richer	-7150
▁rivers	-7151
▁sieves	-7152
▁solely	-7153
▁solita	-7154
▁speaks	-7155
▁spiral	-7156
▁spoken	-7157
▁sponge	-7158
▁sprout	-7159
▁stages	-7160
▁static	-7161
▁steady	-7162
▁steams	-7163
▁stimul	-7164
▁straps	-7165
▁strays	-7166
▁street	-7167
▁string	-7168
▁stripe	-7169
▁struck	-7170
▁strung	-7171
▁styles	-7172
▁sucked	-7173
▁suited	-7174
▁tablet	-7175
▁tactic	-7176
▁tailor	-7177
▁talons	-7178
▁tangle	-7179
▁tastes	-7180
▁taxing	-7181
▁teacup	-7182
▁teaspo	-7183
▁temple	-7184
▁thanks	-7185
▁theirs	-7186
▁themed	-7187
▁themes	-7188
▁thirst	-7189
▁thrown	-7190
▁timing	-7191
▁tongue	-7192
▁topped	-7193
▁traced	-7194
▁tracks	-7195
▁trusty	-7196
▁turkey	-7197
▁typing	-7198
▁uncons	-7199
▁BRY	-7200
▁BRYAN	-7201
▁Guide	-7202
▁botan	-7203
▁itchy	-7204
▁pores	-7205
▁chains	-7206
▁column	-7207
▁fascia	-7208
▁injury	-7209
▁insole	-7210
▁pillow	-7211
▁prongs	-7212
▁rustic	-7213
▁sloppy	-7214
▁thighs	-7215
▁unlike	-7216
▁unlove	-7217
▁upward	-7218
▁urinal	-7219
▁velour	-7220
▁vendor	-7221
▁vision	-7222
▁visits	-7223
▁waited	-7224
▁warmer	-7225
▁washer	-7226
▁welded	-7227
▁whilst	-7228
▁wildly	-7229
▁winged	-7230
▁wiping	-7231
▁wooden	-7232
▁worked	-7233
▁wrench	-7234
catching	-7235
ectioner	-7236
erscotch	-7237
ervative	-7238
existent	-7239
existing	-7240
familiar	-7241
icolored	-7242
ilipitas	-7243
indrical	-7244
iversity	-7245
mergency	-7246
nthetics	-7247
ocosmias	-7248
retching	-7249
rication	-7250
teachers	-7251
ustrator	-7252
ximately	-7253
▁Baldwin	-7254
▁Beatles	-7255
▁Brandon	-7256
▁Butters	-7257
▁Costume	-7258
▁Diopter	-7259
▁Fashion	-7260
▁Feather	-7261
▁Florida	-7262
▁Glasses	-7263
▁Grading	-7264
▁Handler	-7265
▁Healthy	-7266
▁Holding	-7267
▁Kashmir	-7268
▁Knowing	-7269
▁Lancome	-7270
▁Looking	-7271
▁Mexican	-7272
▁Optimal	-7273
▁Parents	-7274
▁Parrots	-7275
▁Pennsyl	-7276
▁Petunia	-7277
▁Placing	-7278
▁Plantar	-7279
▁Plastic	-7280
▁Putting	-7281
▁Release	-7282
▁Russian	-7283
▁Service	-7284
▁Shannon	-7285
▁Staging	-7286
▁Sunland	-7287
▁VANVEEN	-7288
▁Vanveen	-7289
▁Working	-7290
▁ability	-7291
▁address	-7292
▁affects	-7293
▁aligned	-7294
▁aligner	-7295
▁amounts	-7296
▁ancient	-7297
▁antique	-7298
▁anybody	-7299
20.	-7300
didn	-7301
ozen	-7302
▁110	-7303
▁2.5	-7304
▁6/6	-7305
▁60,	-7306
▁Aha	-7307
▁SAL	-7308
▁oxy	-7309
Lavin	-7310
brush	-7311
oudly	-7312
uzzle	-7313
▁2--1	-7314
▁3:00	-7315
▁75%,	-7316
▁Ambi	-7317
▁Auto	-7318
▁Boar	-7319
▁Boys	-7320
▁Grab	-7321
▁KIRK	-7322
▁MIKE	-7323
▁Phot	-7324
▁Road	-7325
▁Sayl	-7326
▁data	-7327
▁hunt	-7328
▁semi	-7329
▁soda	-7330
▁susp	-7331
igrade	-7332
manent	-7333
niture	-7334
▁DAVID	-7335
▁Megan	-7336
▁Often	-7337
▁Paper	-7338
▁Santa	-7339
▁Tampa	-7340
▁amino	-7341
▁buddy	-7342
▁drama	-7343
▁error	-7344
▁exfol	-7345
▁frizz	-7346
▁fudgy	-7347
▁movie	-7348
▁palms	-7349
▁ratio	-7350
▁rules	-7351
▁shyer	-7352
▁spicy	-7353
▁truly	-7354
onniere	-7355
▁Except	-7356
▁Fresno	-7357
▁Infant	-7358
▁Rescue	-7359
▁analog	-7360
▁appeal	-7361
▁bridle	-7362
▁dearly	-7363
▁deluxe	-7364
▁fricos	-7365
▁frozen	-7366
▁herpes	-7367
▁loudly	-7368
▁motorc	-7369
▁muzzle	-7370
▁oxygen	-7371
▁paneer	-7372
▁remedy	-7373
▁scheme	-7374
▁taught	-7375
▁Moraine	-7376
▁Saylors	-7377
▁applies	-7378
▁arrange	-7379
▁arrived	-7380
▁artists	-7381
▁aspects	-7382
▁augered	-7383
▁average	-7384
▁baskets	-7385
▁basking	-7386
▁batting	-7387
▁beading	-7388
▁bedding	-7389
▁beneath	-7390
▁benefit	-7391
▁bitters	-7392
▁blended	-7393
▁blender	-7394
▁bloodst	-7395
▁boggier	-7396
▁bonfire	-7397
▁bristle	-7398
▁broaden	-7399
▁Kurt	-7400
acquer	-7401
leenex	-7402
orship	-7403
queeze	-7404
▁Color	-7405
▁Cooie	-7406
▁David	-7407
▁Elbow	-7408
▁Nigel	-7409
▁Pitts	-7410
▁Sweet	-7411
▁Towel	-7412
▁junky	-7413
▁pneum	-7414
▁vinyl	-7415
▁wedge	-7416
Burning	-7417
LLHIMER	-7418
healing	-7419
rendous	-7420
stacles	-7421
village	-7422
▁Lauren	-7423
▁Melody	-7424
▁Welker	-7425
▁bikini	-7426
▁bodies	-7427
▁canola	-7428
▁chunks	-7429
▁groove	-7430
▁holler	-7431
▁honest	-7432
▁looser	-7433
▁noodle	-7434
▁oftent	-7435
▁pallet	-7436
▁pelvis	-7437
▁pizazz	-7438
▁queens	-7439
▁rapids	-7440
▁sexual	-7441
▁toxify	-7442
▁tribal	-7443
▁vapors	-7444
▁wiggle	-7445
cription	-7446
▁Croquis	-7447
▁Drawing	-7448
▁England	-7449
▁Eucomis	-7450
▁Kleenex	-7451
▁Midwest	-7452
▁Project	-7453
▁Squeeze	-7454
▁Walking	-7455
▁anxious	-7456
▁browned	-7457
▁bubbles	-7458
▁bunkers	-7459
▁callers	-7460
▁canapes	-7461
▁casting	-7462
▁causing	-7463
▁centers	-7464
▁ceramic	-7465
▁changes	-7466
▁charged	-7467
▁chasing	-7468
▁cheerle	-7469
▁chewing	-7470
▁chicken	-7471
▁chilies	-7472
▁choking	-7473
▁chooses	-7474
▁chopped	-7475
▁circuit	-7476
▁cleanly	-7477
▁cleanup	-7478
▁cleaver	-7479
▁climber	-7480
▁clipped	-7481
▁closing	-7482
▁collect	-7483
▁columns	-7484
▁combine	-7485
▁command	-7486
▁compact	-7487
▁compare	-7488
▁complex	-7489
▁complic	-7490
▁concert	-7491
▁consume	-7492
▁cookies	-7493
▁cooling	-7494
▁cottion	-7495
▁couture	-7496
▁creases	-7497
▁crowded	-7498
▁crunchy	-7499
▁ibis	-7500
▁Abbey	-7501
▁DIWAN	-7502
▁Larew	-7503
▁baker	-7504
▁nasty	-7505
▁waste	-7506
artlets	-7507
▁Bailey	-7508
▁CLANCY	-7509
▁Canyon	-7510
▁Create	-7511
▁Koontz	-7512
▁League	-7513
▁abroad	-7514
▁cereal	-7515
▁diesel	-7516
▁gentle	-7517
▁horses	-7518
▁nausea	-7519
▁slogan	-7520
▁tickle	-7521
▁wreath	-7522
▁Angeles	-7523
▁Griffin	-7524
▁Hershey	-7525
▁Horizon	-7526
▁Researh	-7527
▁Running	-7528
▁William	-7529
▁Yolanda	-7530
▁agitate	-7531
▁avocado	-7532
▁blocked	-7533
▁cripple	-7534
▁croquis	-7535
▁curving	-7536
▁cuticle	-7537
▁darthaf	-7538
▁defined	-7539
▁demands	-7540
▁dentist	-7541
▁desirab	-7542
▁dessert	-7543
▁devices	-7544
▁dietary	-7545
▁dipping	-7546
▁disabil	-7547
▁dreaded	-7548
▁drought	-7549
▁dynamic	-7550
▁earlier	-7551
▁elderly	-7552
▁electro	-7553
▁element	-7554
▁enemies	-7555
▁enjoyed	-7556
▁entries	-7557
▁episode	-7558
▁excited	-7559
▁existed	-7560
▁expoxys	-7561
▁eyeball	-7562
▁factory	-7563
▁fancier	-7564
▁farther	-7565
▁feeders	-7566
▁ferment	-7567
▁finance	-7568
▁fixable	-7569
▁flexion	-7570
▁flexors	-7571
▁flipped	-7572
▁folding	-7573
▁formula	-7574
▁fourths	-7575
▁fraiche	-7576
▁fusible	-7577
▁gearing	-7578
▁generic	-7579
▁girlier	-7580
▁glasses	-7581
▁goodbye	-7582
▁gourmet	-7583
▁graders	-7584
▁granted	-7585
▁greater	-7586
▁grocery	-7587
▁haircut	-7588
▁halfway	-7589
▁handful	-7590
▁handing	-7591
▁harness	-7592
▁hassles	-7593
▁healthy	-7594
▁helpful	-7595
▁hitters	-7596
▁holiday	-7597
▁hooking	-7598
▁hooping	-7599
▁Mango	-7600
▁lumpy	-7601
Caution	-7602
roidery	-7603
▁August	-7604
▁Eugene	-7605
▁laptop	-7606
▁sudden	-7607
European	-7608
kerchief	-7609
ritories	-7610
uscripts	-7611
▁COLLURA	-7612
▁Freesia	-7613
▁KRIEGER	-7614
▁Liatris	-7615
▁Mermaid	-7616
▁Primary	-7617
▁Reptile	-7618
▁Scooter	-7619
▁YOLANDA	-7620
▁destroy	-7621
▁horizon	-7622
▁hurtful	-7623
▁illness	-7624
▁immerse	-7625
▁improve	-7626
▁indoors	-7627
▁indulge	-7628
▁infants	-7629
▁inflamm	-7630
▁insoles	-7631
▁inspect	-7632
▁install	-7633
▁intrude	-7634
▁involve	-7635
▁ironing	-7636
▁itching	-7637
▁jackets	-7638
▁joining	-7639
▁keepers	-7640
▁kidneys	-7641
▁kissing	-7642
▁kneaded	-7643
▁knotted	-7644
▁lacquer	-7645
▁largest	-7646
▁lasting	-7647
▁lateral	-7648
▁leading	-7649
▁legwork	-7650
▁leopard	-7651
▁lettuce	-7652
▁leveled	-7653
▁license	-7654
▁lighten	-7655
▁liqueur	-7656
▁longest	-7657
▁lowered	-7658
▁magical	-7659
▁manages	-7660
▁markers	-7661
▁mashing	-7662
▁masters	-7663
▁maximum	-7664
▁meerkat	-7665
▁meeting	-7666
▁melanin	-7667
▁merrier	-7668
▁messing	-7669
▁mindful	-7670
▁mineral	-7671
▁missing	-7672
▁misting	-7673
▁modific	-7674
▁moisten	-7675
▁monthly	-7676
▁motions	-7677
▁noseeum	-7678
▁nowhere	-7679
▁numbers	-7680
▁objects	-7681
▁offices	-7682
▁oneself	-7683
▁opinion	-7684
▁organic	-7685
▁outline	-7686
▁outward	-7687
▁overall	-7688
▁overlap	-7689
▁packing	-7690
▁padding	-7691
▁paddles	-7692
▁painful	-7693
▁panting	-7694
▁parking	-7695
▁parries	-7696
▁peeling	-7697
▁pencils	-7698
▁percent	-7699
▁Adriel	-7700
▁Virabh	-7701
▁plexig	-7702
▁Carmine	-7703
▁Clarins	-7704
▁Fridays	-7705
▁Systems	-7706
▁VICKERS	-7707
▁adheres	-7708
▁oatmeal	-7709
▁periods	-7710
▁perpend	-7711
▁petunia	-7712
▁picking	-7713
▁pillows	-7714
▁pitches	-7715
▁plaster	-7716
▁pleased	-7717
▁pliable	-7718
▁plopped	-7719
▁pockets	-7720
▁pooling	-7721
▁popular	-7722
▁portion	-7723
▁postage	-7724
▁poverty	-7725
▁powered	-7726
▁preform	-7727
▁priming	-7728
▁program	-7729
▁promote	-7730
▁provide	-7731
▁pudding	-7732
▁pumpkin	-7733
▁punches	-7734
▁pursued	-7735
▁pyramid	-7736
▁quality	-7737
▁quarter	-7738
▁raccoon	-7739
▁racquet	-7740
▁ratchet	-7741
▁reaches	-7742
▁rebound	-7743
▁recover	-7744
▁redness	-7745
▁refined	-7746
▁related	-7747
▁relaxed	-7748
▁relaxes	-7749
▁relevee	-7750
▁relieve	-7751
▁removal	-7752
▁repaint	-7753
▁replica	-7754
▁reptile	-7755
▁residue	-7756
▁resting	-7757
▁retrace	-7758
▁rewards	-7759
▁ribcage	-7760
▁ricotta	-7761
▁rockery	-7762
▁roughed	-7763
▁routine	-7764
▁salvage	-7765
▁samples	-7766
▁samurai	-7767
▁sanding	-7768
▁screens	-7769
▁sealing	-7770
▁seasons	-7771
▁seating	-7772
▁secrets	-7773
▁shading	-7774
▁shadows	-7775
▁shallow	-7776
▁skinned	-7777
▁sleeves	-7778
▁sleight	-7779
▁slimmer	-7780
▁slitted	-7781
▁smoking	-7782
▁snipped	-7783
▁snugged	-7784
▁soaking	-7785
▁society	-7786
▁solider	-7787
▁soluble	-7788
▁solvent	-7789
▁solving	-7790
▁soybean	-7791
▁spatula	-7792
▁spelled	-7793
▁spirits	-7794
▁spokesp	-7795
▁spooked	-7796
▁sprayed	-7797
▁sprouts	-7798
▁stomach	-7799
▁strings	-7800
▁studies	-7801
▁studios	-7802
▁subdued	-7803
▁succeed	-7804
▁survive	-7805
▁systems	-7806
▁talents	-7807
▁telling	-7808
▁tending	-7809
▁terrain	-7810
▁topping	-7811
▁traumas	-7812
▁treated	-7813
▁trimmed	-7814
▁tucking	-7815
▁tugging	-7816
▁twisted	-7817
▁typeset	-7818
▁typical	-7819
▁uncontr	-7820
▁upright	-7821
▁utility	-7822
▁utilize	-7823
▁vanveen	-7824
▁veggies	-7825
▁victory	-7826
▁wanting	-7827
▁warrior	-7828
▁watched	-7829
▁watered	-7830
▁website	-7831
▁weekend	-7832
▁western	-7833
▁whereas	-7834
▁wrapped	-7835
▁written	-7836
939-4086,	-7837
according	-7838
basically	-7839
homerenov	-7840
identally	-7841
rigerator	-7842
ropolitan	-7843
treatment	-7844
▁Anything	-7845
▁Anywhere	-7846
▁Baroness	-7847
▁Blending	-7848
▁Brodiaea	-7849
▁Brushing	-7850
▁Budapest	-7851
▁Carolina	-7852
▁Cascades	-7853
▁Cataract	-7854
▁Choosing	-7855
▁Chopping	-7856
▁Daffodil	-7857
▁Disorder	-7858
▁Downside	-7859
▁Egyptian	-7860
▁Everyone	-7861
▁Footwork	-7862
▁Gilligan	-7863
▁Gorgeous	-7864
▁HARMONIE	-7865
▁Handyman	-7866
▁Homebrew	-7867
▁Inhaling	-7868
▁Internet	-7869
▁Isolated	-7870
▁Jeanette	-7871
▁Kerosene	-7872
▁Learning	-7873
▁Marshall	-7874
▁Martinis	-7875
▁Modified	-7876
▁Normally	-7877
▁Northern	-7878
▁Overhead	-7879
▁Peruvian	-7880
▁Petunias	-7881
▁Phillips	-7882
▁Planning	-7883
▁Practice	-7884
▁Probably	-7885
▁Redesign	-7886
▁Removing	-7887
▁Robinson	-7888
▁Schnapps	-7889
▁Security	-7890
▁Stockton	-7891
▁Wellness	-7892
▁Wrecking	-7893
▁abstract	-7894
▁academic	-7895
▁accuracy	-7896
▁activate	-7897
▁addition	-7898
▁adorable	-7899
▁alcohols	-7900
▁allergic	-7901
▁amateurs	-7902
▁anchored	-7903
▁anodized	-7904
▁apparent	-7905
▁applying	-7906
▁arranged	-7907
▁assigned	-7908
▁athletic	-7909
▁backhand	-7910
▁backside	-7911
▁bacteria	-7912
▁balanced	-7913
▁baroness	-7914
▁basement	-7915
▁beautify	-7916
▁begining	-7917
▁believes	-7918
▁bleeding	-7919
▁	-7920
e	-7921
t	-7922
o	-7923
a	-7924
n	-7925
i	-7926
s	-7927
r	-7928
h	-7929
l	-7930
u	-7931
d	-7932
g	-7933
y	-7934
c	-7935
w	-7936
m	-7937
f	-7938
p	-7939
b	-7940
.	-7941
,	-7942
k	-7943
'	-7944
v	-7945
I	-7946
A	-7947
T	-7948
j	-7949
S	-7950
x	-7951
W	-7952
N	-7953
Y	-7954
-	-7955
B	-7956
O	-7957
q	-7958
z	-7959
H	-7960
C	-7961
M	-7962
L	-7963
D	-7964
F	-7965
E	-7966
R	-7967
P	-7968
"	-7969
0	-7970
1	-7971
?	-7972
G	-7973
J	-7974
;	-7975
K	-7976
2	-7977
3	-7978
8	-7979
V	-7980
:	-7981
5	-7982
U	-7983
9	-7984
/	-7985
4	-7986
(	-7987
)	-7988
!	-7989
6	-7990
	-7991
â	-7992
%	-7993
7	-7994
	-7995
